{
    "metadata": {
        "version": "0.1.0",
        "model_type": "byte-bpe",
        "vocab_size": 50000
    },
    "vocabulary": {
        "0": "\u0000",
        "1": "\u0001",
        "2": "\u0002",
        "3": "\u0003",
        "4": "\u0004",
        "5": "\u0005",
        "6": "\u0006",
        "7": "\u0007",
        "8": "\b",
        "9": "\t",
        "10": "\n",
        "11": "\u000b",
        "12": "\f",
        "13": "\r",
        "14": "\u000e",
        "15": "\u000f",
        "16": "\u0010",
        "17": "\u0011",
        "18": "\u0012",
        "19": "\u0013",
        "20": "\u0014",
        "21": "\u0015",
        "22": "\u0016",
        "23": "\u0017",
        "24": "\u0018",
        "25": "\u0019",
        "26": "\u001a",
        "27": "\u001b",
        "28": "\u001c",
        "29": "\u001d",
        "30": "\u001e",
        "31": "\u001f",
        "32": " ",
        "33": "!",
        "34": "\"",
        "35": "#",
        "36": "$",
        "37": "%",
        "38": "&",
        "39": "'",
        "40": "(",
        "41": ")",
        "42": "*",
        "43": "+",
        "44": ",",
        "45": "-",
        "46": ".",
        "47": "/",
        "48": "0",
        "49": "1",
        "50": "2",
        "51": "3",
        "52": "4",
        "53": "5",
        "54": "6",
        "55": "7",
        "56": "8",
        "57": "9",
        "58": ":",
        "59": ";",
        "60": "<",
        "61": "=",
        "62": ">",
        "63": "?",
        "64": "@",
        "65": "A",
        "66": "B",
        "67": "C",
        "68": "D",
        "69": "E",
        "70": "F",
        "71": "G",
        "72": "H",
        "73": "I",
        "74": "J",
        "75": "K",
        "76": "L",
        "77": "M",
        "78": "N",
        "79": "O",
        "80": "P",
        "81": "Q",
        "82": "R",
        "83": "S",
        "84": "T",
        "85": "U",
        "86": "V",
        "87": "W",
        "88": "X",
        "89": "Y",
        "90": "Z",
        "91": "[",
        "92": "\\",
        "93": "]",
        "94": "^",
        "95": "_",
        "96": "`",
        "97": "a",
        "98": "b",
        "99": "c",
        "100": "d",
        "101": "e",
        "102": "f",
        "103": "g",
        "104": "h",
        "105": "i",
        "106": "j",
        "107": "k",
        "108": "l",
        "109": "m",
        "110": "n",
        "111": "o",
        "112": "p",
        "113": "q",
        "114": "r",
        "115": "s",
        "116": "t",
        "117": "u",
        "118": "v",
        "119": "w",
        "120": "x",
        "121": "y",
        "122": "z",
        "123": "{",
        "124": "|",
        "125": "}",
        "126": "~",
        "127": "\u007f",
        "128": "\ufffd",
        "129": "\ufffd",
        "130": "\ufffd",
        "131": "\ufffd",
        "132": "\ufffd",
        "133": "\ufffd",
        "134": "\ufffd",
        "135": "\ufffd",
        "136": "\ufffd",
        "137": "\ufffd",
        "138": "\ufffd",
        "139": "\ufffd",
        "140": "\ufffd",
        "141": "\ufffd",
        "142": "\ufffd",
        "143": "\ufffd",
        "144": "\ufffd",
        "145": "\ufffd",
        "146": "\ufffd",
        "147": "\ufffd",
        "148": "\ufffd",
        "149": "\ufffd",
        "150": "\ufffd",
        "151": "\ufffd",
        "152": "\ufffd",
        "153": "\ufffd",
        "154": "\ufffd",
        "155": "\ufffd",
        "156": "\ufffd",
        "157": "\ufffd",
        "158": "\ufffd",
        "159": "\ufffd",
        "160": "\ufffd",
        "161": "\ufffd",
        "162": "\ufffd",
        "163": "\ufffd",
        "164": "\ufffd",
        "165": "\ufffd",
        "166": "\ufffd",
        "167": "\ufffd",
        "168": "\ufffd",
        "169": "\ufffd",
        "170": "\ufffd",
        "171": "\ufffd",
        "172": "\ufffd",
        "173": "\ufffd",
        "174": "\ufffd",
        "175": "\ufffd",
        "176": "\ufffd",
        "177": "\ufffd",
        "178": "\ufffd",
        "179": "\ufffd",
        "180": "\ufffd",
        "181": "\ufffd",
        "182": "\ufffd",
        "183": "\ufffd",
        "184": "\ufffd",
        "185": "\ufffd",
        "186": "\ufffd",
        "187": "\ufffd",
        "188": "\ufffd",
        "189": "\ufffd",
        "190": "\ufffd",
        "191": "\ufffd",
        "192": "\ufffd",
        "193": "\ufffd",
        "194": "\ufffd",
        "195": "\ufffd",
        "196": "\ufffd",
        "197": "\ufffd",
        "198": "\ufffd",
        "199": "\ufffd",
        "200": "\ufffd",
        "201": "\ufffd",
        "202": "\ufffd",
        "203": "\ufffd",
        "204": "\ufffd",
        "205": "\ufffd",
        "206": "\ufffd",
        "207": "\ufffd",
        "208": "\ufffd",
        "209": "\ufffd",
        "210": "\ufffd",
        "211": "\ufffd",
        "212": "\ufffd",
        "213": "\ufffd",
        "214": "\ufffd",
        "215": "\ufffd",
        "216": "\ufffd",
        "217": "\ufffd",
        "218": "\ufffd",
        "219": "\ufffd",
        "220": "\ufffd",
        "221": "\ufffd",
        "222": "\ufffd",
        "223": "\ufffd",
        "224": "\ufffd",
        "225": "\ufffd",
        "226": "\ufffd",
        "227": "\ufffd",
        "228": "\ufffd",
        "229": "\ufffd",
        "230": "\ufffd",
        "231": "\ufffd",
        "232": "\ufffd",
        "233": "\ufffd",
        "234": "\ufffd",
        "235": "\ufffd",
        "236": "\ufffd",
        "237": "\ufffd",
        "238": "\ufffd",
        "239": "\ufffd",
        "240": "\ufffd",
        "241": "\ufffd",
        "242": "\ufffd",
        "243": "\ufffd",
        "244": "\ufffd",
        "245": "\ufffd",
        "246": "\ufffd",
        "247": "\ufffd",
        "248": "\ufffd",
        "249": "\ufffd",
        "250": "\ufffd",
        "251": "\ufffd",
        "252": "\ufffd",
        "253": "\ufffd",
        "254": "\ufffd",
        "255": "\ufffd",
        "256": " t",
        "257": "he",
        "258": " a",
        "259": "in",
        "260": "re",
        "261": " w",
        "262": " m",
        "263": " the",
        "264": " o",
        "265": "nd",
        "266": " s",
        "267": "ed",
        "268": "er",
        "269": "at",
        "270": "ou",
        "271": "en",
        "272": "on",
        "273": " b",
        "274": " f",
        "275": " I",
        "276": " and",
        "277": " h",
        "278": "is",
        "279": " of",
        "280": "it",
        "281": " c",
        "282": "es",
        "283": " to",
        "284": " d",
        "285": "or",
        "286": "an",
        "287": "as",
        "288": " p",
        "289": "ar",
        "290": " th",
        "291": " in",
        "292": "ing",
        "293": " my",
        "294": "ll",
        "295": " n",
        "296": "om",
        "297": " l",
        "298": " e",
        "299": "ic",
        "300": "ion",
        "301": "ut",
        "302": " ha",
        "303": " be",
        "304": "le",
        "305": "st",
        "306": " he",
        "307": "\ufffd",
        "308": " re",
        "309": "ve",
        "310": "ent",
        "311": "se",
        "312": "ce",
        "313": "ot",
        "314": "ly",
        "315": " wh",
        "316": " y",
        "317": " was",
        "318": " me",
        "319": " that",
        "320": "ow",
        "321": "ld",
        "322": "ur",
        "323": "gh",
        "324": "im",
        "325": " you",
        "326": "ct",
        "327": "ver",
        "328": "ith",
        "329": "ir",
        "330": "al",
        "331": " g",
        "332": " on",
        "333": " with",
        "334": "et",
        "335": "red",
        "336": "ght",
        "337": "id",
        "338": "ro",
        "339": " u",
        "340": " for",
        "341": "ess",
        "342": " had",
        "343": "ri",
        "344": " as",
        "345": " de",
        "346": " it",
        "347": "ich",
        "348": " not",
        "349": "ain",
        "350": "her",
        "351": " we",
        "352": "ould",
        "353": "ay",
        "354": "ad",
        "355": "th",
        "356": "ab",
        "357": "ation",
        "358": " which",
        "359": "pp",
        "360": " but",
        "361": " an",
        "362": "ter",
        "363": "\u201c",
        "364": " his",
        "365": "am",
        "366": "ge",
        "367": "li",
        "368": " con",
        "369": " st",
        "370": "ill",
        "371": "rom",
        "372": "ect",
        "373": " by",
        "374": "if",
        "375": "ch",
        "376": " fe",
        "377": " su",
        "378": " T",
        "379": "and",
        "380": "our",
        "381": " ex",
        "382": "il",
        "383": "ore",
        "384": " v",
        "385": "ure",
        "386": " at",
        "387": " sh",
        "388": "nt",
        "389": "ul",
        "390": " se",
        "391": " from",
        "392": "hen",
        "393": "all",
        "394": " so",
        "395": "est",
        "396": " her",
        "397": " this",
        "398": "ight",
        "399": "ard",
        "400": " have",
        "401": "ved",
        "402": "res",
        "403": " is",
        "404": "qu",
        "405": "ate",
        "406": "oo",
        "407": "ind",
        "408": "ound",
        "409": "ea",
        "410": "ear",
        "411": "sed",
        "412": "the",
        "413": "\u201d",
        "414": "em",
        "415": "end",
        "416": "ome",
        "417": "reat",
        "418": "ra",
        "419": "sel",
        "420": "ist",
        "421": " al",
        "422": " The",
        "423": "ous",
        "424": " were",
        "425": "ke",
        "426": "ac",
        "427": " sp",
        "428": " A",
        "429": " when",
        "430": "ence",
        "431": "able",
        "432": "el",
        "433": " sa",
        "434": " him",
        "435": "art",
        "436": " wor",
        "437": "de",
        "438": " your",
        "439": "um",
        "440": "ust",
        "441": " or",
        "442": "ant",
        "443": " un",
        "444": "hed",
        "445": "to",
        "446": "self",
        "447": " all",
        "448": " H",
        "449": " who",
        "450": " man",
        "451": "ol",
        "452": " pro",
        "453": "  ",
        "454": "us",
        "455": "ity",
        "456": "ff",
        "457": "ive",
        "458": " M",
        "459": " S",
        "460": "ran",
        "461": "very",
        "462": "ven",
        "463": " com",
        "464": "un",
        "465": "ag",
        "466": "op",
        "467": "ers",
        "468": "ount",
        "469": "cc",
        "470": "ame",
        "471": "ove",
        "472": "ort",
        "473": " k",
        "474": "ness",
        "475": " am",
        "476": " ch",
        "477": "ast",
        "478": " app",
        "479": "os",
        "480": "ost",
        "481": " des",
        "482": "ath",
        "483": " W",
        "484": "fore",
        "485": "age",
        "486": " dis",
        "487": "ong",
        "488": " up",
        "489": " ag",
        "490": "ated",
        "491": "ance",
        "492": "ered",
        "493": " will",
        "494": " she",
        "495": " ne",
        "496": "pt",
        "497": " could",
        "498": " ar",
        "499": " been",
        "500": " are",
        "501": "ine",
        "502": " im",
        "503": "ish",
        "504": " B",
        "505": "ather",
        "506": "ought",
        "507": " one",
        "508": "ood",
        "509": "are",
        "510": "ment",
        "511": " would",
        "512": " E",
        "513": " en",
        "514": "urn",
        "515": " r",
        "516": " no",
        "517": "ice",
        "518": " do",
        "519": "ha",
        "520": "ies",
        "521": "one",
        "522": "ions",
        "523": "ject",
        "524": "ne",
        "525": "ose",
        "526": " their",
        "527": "\n\n",
        "528": "la",
        "529": " j",
        "530": "ber",
        "531": " \u201c",
        "532": "ig",
        "533": " they",
        "534": "ings",
        "535": " mis",
        "536": " if",
        "537": " per",
        "538": " G",
        "539": "ond",
        "540": " more",
        "541": "now",
        "542": "oy",
        "543": "\u2019",
        "544": " F",
        "545": "wn",
        "546": ".\u201d",
        "547": "ci",
        "548": "of",
        "549": " can",
        "550": "ful",
        "551": " rem",
        "552": "ie",
        "553": "ted",
        "554": "ire",
        "555": " P",
        "556": "ep",
        "557": " now",
        "558": "ud",
        "559": "ret",
        "560": " should",
        "561": " exp",
        "562": "ks",
        "563": "led",
        "564": "ked",
        "565": "ther",
        "566": "riend",
        "567": "su",
        "568": " comp",
        "569": "ble",
        "570": "ime",
        "571": "ward",
        "572": " them",
        "573": " some",
        "574": "ene",
        "575": " pas",
        "576": " ent",
        "577": "we",
        "578": " feel",
        "579": "ak",
        "580": "ry",
        "581": " C",
        "582": "ru",
        "583": " day",
        "584": " li",
        "585": " before",
        "586": "ations",
        "587": "au",
        "588": " myself",
        "589": "\u2014",
        "590": " father",
        "591": "other",
        "592": "irst",
        "593": " any",
        "594": "be",
        "595": "od",
        "596": " ab",
        "597": " than",
        "598": " end",
        "599": "for",
        "600": " our",
        "601": "ife",
        "602": " He",
        "603": " upon",
        "604": " these",
        "605": "ough",
        "606": "eth",
        "607": " into",
        "608": " ob",
        "609": " ret",
        "610": " qu",
        "611": " bl",
        "612": " its",
        "613": "ced",
        "614": " friend",
        "615": " miser",
        "616": " ey",
        "617": " cont",
        "618": "his",
        "619": "so",
        "620": " acc",
        "621": " might",
        "622": "lect",
        "623": " other",
        "624": "out",
        "625": " only",
        "626": " over",
        "627": "nder",
        "628": "erv",
        "629": " did",
        "630": " But",
        "631": "ied",
        "632": " own",
        "633": "ng",
        "634": " ad",
        "635": " yet",
        "636": "ise",
        "637": " bec",
        "638": " Y",
        "639": "pl",
        "640": "per",
        "641": "ree",
        "642": " life",
        "643": "ide",
        "644": "rem",
        "645": " sc",
        "646": "ile",
        "647": "ild",
        "648": " may",
        "649": " first",
        "650": "ake",
        "651": "oll",
        "652": "here",
        "653": "ang",
        "654": " res",
        "655": " then",
        "656": "wards",
        "657": "con",
        "658": " pl",
        "659": "uten",
        "660": " cons",
        "661": " att",
        "662": "fe",
        "663": "fter",
        "664": " said",
        "665": " O",
        "666": "wh",
        "667": " happ",
        "668": " My",
        "669": "The",
        "670": "lo",
        "671": " thought",
        "672": " every",
        "673": " great",
        "674": "ade",
        "675": "ited",
        "676": "ress",
        "677": " eyes",
        "678": " creat",
        "679": "ary",
        "680": "ily",
        "681": "berg",
        "682": "utenberg",
        "683": "orr",
        "684": " ref",
        "685": "ents",
        "686": "ck",
        "687": "ning",
        "688": "zab",
        "689": " nat",
        "690": "lizab",
        "691": " shall",
        "692": "lizabeth",
        "693": " dist",
        "694": " again",
        "695": " L",
        "696": "ious",
        "697": "old",
        "698": "ten",
        "699": " time",
        "700": " there",
        "701": " saw",
        "702": " fa",
        "703": " count",
        "704": " pre",
        "705": " even",
        "706": " being",
        "707": "owed",
        "708": "ained",
        "709": " po",
        "710": " pres",
        "711": "ict",
        "712": " know",
        "713": "oss",
        "714": "ory",
        "715": "ark",
        "716": " what",
        "717": "iv",
        "718": "med",
        "719": " found",
        "720": " gr",
        "721": "ears",
        "722": " ro",
        "723": " ra",
        "724": " how",
        "725": " those",
        "726": "imes",
        "727": "less",
        "728": " mind",
        "729": " ever",
        "730": "ott",
        "731": "roject",
        "732": "ally",
        "733": "ffect",
        "734": " imp",
        "735": "lt",
        "736": " most",
        "737": " It",
        "738": " night",
        "739": " love",
        "740": " disc",
        "741": ",\u201d",
        "742": "way",
        "743": " rep",
        "744": "light",
        "745": " mon",
        "746": "ens",
        "747": "ened",
        "748": "ite",
        "749": "itt",
        "750": " cl",
        "751": " dest",
        "752": " return",
        "753": " hop",
        "754": "but",
        "755": "ired",
        "756": "read",
        "757": " towards",
        "758": " long",
        "759": " Elizabeth",
        "760": "ign",
        "761": " D",
        "762": "cl",
        "763": "ined",
        "764": " heart",
        "765": " rest",
        "766": " whom",
        "767": " see",
        "768": "ds",
        "769": "ef",
        "770": "not",
        "771": "ert",
        "772": "ished",
        "773": " pr",
        "774": " under",
        "775": " felt",
        "776": "ap",
        "777": "anc",
        "778": "uring",
        "779": " work",
        "780": "te",
        "781": " pur",
        "782": " death",
        "783": " suff",
        "784": " where",
        "785": " ear",
        "786": "leas",
        "787": " rec",
        "788": " us",
        "789": " Project",
        "790": "ex",
        "791": "sp",
        "792": " mur",
        "793": "overed",
        "794": "hap",
        "795": "lace",
        "796": " very",
        "797": "sh",
        "798": "ty",
        "799": " part",
        "800": " such",
        "801": "eav",
        "802": " Gutenberg",
        "803": "air",
        "804": "ach",
        "805": "ched",
        "806": "fort",
        "807": "my",
        "808": "iness",
        "809": "ren",
        "810": "ived",
        "811": "inu",
        "812": " ev",
        "813": "eared",
        "814": "uman",
        "815": "its",
        "816": " inst",
        "817": " dep",
        "818": " dear",
        "819": " comm",
        "820": " after",
        "821": " must",
        "822": " occ",
        "823": " br",
        "824": " fi",
        "825": " loo",
        "826": "ick",
        "827": "up",
        "828": "erm",
        "829": " cott",
        "830": " hand",
        "831": "ressed",
        "832": "    ",
        "833": " pass",
        "834": "land",
        "835": "ors",
        "836": "ceived",
        "837": "own",
        "838": "right",
        "839": "lie",
        "840": " also",
        "841": " near",
        "842": " lo",
        "843": "ains",
        "844": "ours",
        "845": " kind",
        "846": " 1",
        "847": "aut",
        "848": " passed",
        "849": "ull",
        "850": " made",
        "851": " sur",
        "852": " human",
        "853": "itu",
        "854": " too",
        "855": " gu",
        "856": " still",
        "857": "ures",
        "858": " many",
        "859": "ured",
        "860": " same",
        "861": " form",
        "862": " conf",
        "863": " sun",
        "864": " She",
        "865": " feelings",
        "866": " You",
        "867": "uch",
        "868": "omet",
        "869": " fear",
        "870": " spir",
        "871": "enev",
        "872": "ometimes",
        "873": " N",
        "874": "ged",
        "875": "lerv",
        "876": "ink",
        "877": "ord",
        "878": " pleas",
        "879": " heard",
        "880": " stran",
        "881": " few",
        "882": "ause",
        "883": "lerval",
        "884": "ared",
        "885": "ue",
        "886": " sens",
        "887": " has",
        "888": " inde",
        "889": " em",
        "890": "ently",
        "891": " while",
        "892": " soon",
        "893": " like",
        "894": " continu",
        "895": "ittle",
        "896": "av",
        "897": "man",
        "898": "ition",
        "899": " poss",
        "900": "that",
        "901": " never",
        "902": " became",
        "903": "bl",
        "904": "ip",
        "905": " pow",
        "906": " let",
        "907": "ction",
        "908": "vers",
        "909": "roy",
        "910": " child",
        "911": "Just",
        "912": "ible",
        "913": "me",
        "914": "most",
        "915": "wo",
        "916": " affect",
        "917": " mom",
        "918": "ised",
        "919": " thr",
        "920": " reflect",
        "921": "Justine",
        "922": "app",
        "923": " wret",
        "924": "ried",
        "925": " desp",
        "926": "fortun",
        "927": "du",
        "928": "no",
        "929": "with",
        "930": " wat",
        "931": " mount",
        "932": "itted",
        "933": " che",
        "934": " beaut",
        "935": "though",
        "936": " vis",
        "937": " appear",
        "938": " miserable",
        "939": "ever",
        "940": "was",
        "941": " place",
        "942": "essed",
        "943": "lix",
        "944": " This",
        "945": " ext",
        "946": "ntil",
        "947": " appeared",
        "948": " about",
        "949": "ale",
        "950": "com",
        "951": "hing",
        "952": "over",
        "953": " tr",
        "954": "rest",
        "955": "ream",
        "956": " out",
        "957": " cr",
        "958": " little",
        "959": " gl",
        "960": "elix",
        "961": "hat",
        "962": "oice",
        "963": " ac",
        "964": " away",
        "965": " sm",
        "966": " horr",
        "967": " light",
        "968": "ceed",
        "969": " days",
        "970": "pr",
        "971": " wind",
        "972": " mo",
        "973": "arm",
        "974": " seem",
        "975": " words",
        "976": " misery",
        "977": " country",
        "978": " destroy",
        "979": " pursu",
        "980": " indeed",
        "981": "cess",
        "982": "ec",
        "983": "ken",
        "984": " old",
        "985": " often",
        "986": "ans",
        "987": " ga",
        "988": " new",
        "989": " joy",
        "990": "form",
        "991": "which",
        "992": "hapter",
        "993": "den",
        "994": "rer",
        "995": " wond",
        "996": " men",
        "997": " If",
        "998": " during",
        "999": " belie",
        "1000": "cept",
        "1001": "ult",
        "1002": " whose",
        "1003": " arri",
        "1004": " cannot",
        "1005": "ledge",
        "1006": " hope",
        "1007": "hy",
        "1008": " tra",
        "1009": " sat",
        "1010": " fl",
        "1011": " tor",
        "1012": " det",
        "1013": "ass",
        "1014": " pers",
        "1015": " beg",
        "1016": "ected",
        "1017": " fell",
        "1018": " supp",
        "1019": " among",
        "1020": " compan",
        "1021": " endeav",
        "1022": " friends",
        "1023": "der",
        "1024": "int",
        "1025": "rew",
        "1026": "ouse",
        "1027": " thus",
        "1028": " world",
        "1029": " month",
        "1030": " murde",
        "1031": " sou",
        "1032": "ense",
        "1033": " cop",
        "1034": "ase",
        "1035": " inc",
        "1036": " nor",
        "1037": "\u2018",
        "1038": "veral",
        "1039": "new",
        "1040": "aken",
        "1041": " Clerval",
        "1042": " happy",
        "1043": " nature",
        "1044": "itude",
        "1045": "My",
        "1046": " turn",
        "1047": " much",
        "1048": " sy",
        "1049": " fam",
        "1050": " In",
        "1051": " hard",
        "1052": " dif",
        "1053": "ster",
        "1054": " although",
        "1055": "ack",
        "1056": "ney",
        "1057": " power",
        "1058": " affection",
        "1059": " id",
        "1060": "joy",
        "1061": "lf",
        "1062": "ned",
        "1063": "ving",
        "1064": " tran",
        "1065": " cur",
        "1066": "ange",
        "1067": " gent",
        "1068": " until",
        "1069": "ribut",
        "1070": " another",
        "1071": " voice",
        "1072": " alone",
        "1073": "   ",
        "1074": " imag",
        "1075": " scene",
        "1076": " present",
        "1077": " ut",
        "1078": "bed",
        "1079": "ger",
        "1080": "had",
        "1081": "enance",
        "1082": " foll",
        "1083": " cour",
        "1084": " reg",
        "1085": " rel",
        "1086": " years",
        "1087": " deep",
        "1088": "eace",
        "1089": " mann",
        "1090": " Felix",
        "1091": " creature",
        "1092": " despair",
        "1093": " R",
        "1094": " ice",
        "1095": "igh",
        "1096": "uish",
        "1097": " sound",
        "1098": " came",
        "1099": " inter",
        "1100": "cted",
        "1101": "ety",
        "1102": "lied",
        "1103": " several",
        "1104": "well",
        "1105": " resol",
        "1106": " happiness",
        "1107": " cottage",
        "1108": " horror",
        "1109": " Justine",
        "1110": "aven",
        "1111": "hes",
        "1112": " sin",
        "1113": "ates",
        "1114": "ener",
        "1115": " call",
        "1116": " cond",
        "1117": "orning",
        "1118": "ention",
        "1119": " deg",
        "1120": " delight",
        "1121": " well",
        "1122": " We",
        "1123": " occup",
        "1124": " ill",
        "1125": "aw",
        "1126": "ination",
        "1127": "itter",
        "1128": " dark",
        "1129": " read",
        "1130": "ourney",
        "1131": " exist",
        "1132": " works",
        "1133": " When",
        "1134": " consid",
        "1135": " moment",
        "1136": " through",
        "1137": "noc",
        "1138": " U",
        "1139": "mon",
        "1140": "path",
        "1141": "ves",
        "1142": " wr",
        "1143": " far",
        "1144": "empt",
        "1145": "happ",
        "1146": "laim",
        "1147": "orrow",
        "1148": " poor",
        "1149": " hands",
        "1150": " letter",
        "1151": " sym",
        "1152": "dis",
        "1153": "iz",
        "1154": "mis",
        "1155": " wood",
        "1156": " make",
        "1157": " op",
        "1158": "oud",
        "1159": "ony",
        "1160": " house",
        "1161": " cre",
        "1162": " prom",
        "1163": " lab",
        "1164": " young",
        "1165": " dev",
        "1166": "illed",
        "1167": " sub",
        "1168": " depart",
        "1169": "eneva",
        "1170": " seemed",
        "1171": " wonder",
        "1172": " months",
        "1173": "cri",
        "1174": "fic",
        "1175": "sw",
        "1176": "oured",
        "1177": " best",
        "1178": " down",
        "1179": "ason",
        "1180": " peace",
        "1181": " inf",
        "1182": " le",
        "1183": " without",
        "1184": " ass",
        "1185": "ainted",
        "1186": " exc",
        "1187": " sec",
        "1188": " almost",
        "1189": " himself",
        "1190": "ants",
        "1191": "aking",
        "1192": " obs",
        "1193": "ances",
        "1194": " soul",
        "1195": "\n    ",
        "1196": " V",
        "1197": "af",
        "1198": "ail",
        "1199": "ial",
        "1200": "lic",
        "1201": "you",
        "1202": " morning",
        "1203": "erable",
        "1204": "oub",
        "1205": "ither",
        "1206": " within",
        "1207": " stud",
        "1208": "cience",
        "1209": " remem",
        "1210": " plac",
        "1211": " earth",
        "1212": " fiend",
        "1213": " mountains",
        "1214": " gentle",
        "1215": "act",
        "1216": "cer",
        "1217": "eas",
        "1218": " bound",
        "1219": " cal",
        "1220": " int",
        "1221": " innoc",
        "1222": " last",
        "1223": " bet",
        "1224": "ided",
        "1225": "iful",
        "1226": " They",
        "1227": "ached",
        "1228": " enjoy",
        "1229": " enter",
        "1230": " add",
        "1231": "ready",
        "1232": " took",
        "1233": " spirit",
        "1234": " strange",
        "1235": " copy",
        "1236": " since",
        "1237": " sympath",
        "1238": "hor",
        "1239": "hus",
        "1240": "ph",
        "1241": " taken",
        "1242": "held",
        "1243": "rees",
        "1244": " mar",
        "1245": " mother",
        "1246": " sometimes",
        "1247": " hours",
        "1248": "ister",
        "1249": " inte",
        "1250": " lef",
        "1251": "ook",
        "1252": " Ar",
        "1253": " char",
        "1254": " around",
        "1255": "ments",
        "1256": " just",
        "1257": " journey",
        "1258": " object",
        "1259": " quick",
        "1260": "angu",
        "1261": " thoughts",
        "1262": " therefore",
        "1263": "ertain",
        "1264": " prot",
        "1265": " wretched",
        "1266": " idea",
        "1267": " left",
        "1268": "It",
        "1269": "ces",
        "1270": "ps",
        "1271": "xed",
        "1272": "your",
        "1273": " term",
        "1274": " two",
        "1275": " air",
        "1276": " come",
        "1277": " cause",
        "1278": " live",
        "1279": "ural",
        "1280": "irl",
        "1281": "rief",
        "1282": " state",
        "1283": "ousand",
        "1284": " Ag",
        "1285": " appro",
        "1286": " ard",
        "1287": "have",
        "1288": "\n\n\n\n",
        "1289": " Geneva",
        "1290": " entered",
        "1291": "lectr",
        "1292": " underst",
        "1293": " pleasure",
        "1294": " continued",
        "1295": " _",
        "1296": "?\u201d",
        "1297": "bs",
        "1298": "des",
        "1299": "ib",
        "1300": "osed",
        "1301": "unt",
        "1302": "rent",
        "1303": " wal",
        "1304": "erved",
        "1305": "eng",
        "1306": " bitter",
        "1307": " care",
        "1308": " lay",
        "1309": " list",
        "1310": "leep",
        "1311": "ste",
        "1312": " here",
        "1313": " good",
        "1314": "ros",
        "1315": "ection",
        "1316": " sea",
        "1317": " Eng",
        "1318": " misfortun",
        "1319": " fellow",
        "1320": "But",
        "1321": "come",
        "1322": "dden",
        "1323": "hab",
        "1324": "ian",
        "1325": "ient",
        "1326": "oke",
        "1327": "rate",
        "1328": "tered",
        "1329": "ual",
        "1330": " ter",
        "1331": " tale",
        "1332": " sil",
        "1333": "onic",
        "1334": " dream",
        "1335": "arious",
        "1336": " think",
        "1337": " ind",
        "1338": " land",
        "1339": " lear",
        "1340": " heaven",
        "1341": "irc",
        "1342": " nothing",
        "1343": " whole",
        "1344": "ranken",
        "1345": " knew",
        "1346": "arent",
        "1347": " remained",
        "1348": "aught",
        "1349": " adv",
        "1350": " become",
        "1351": "cont",
        "1352": "feel",
        "1353": "ictor",
        "1354": " room",
        "1355": " sensations",
        "1356": " possessed",
        "1357": " gave",
        "1358": " companion",
        "1359": " family",
        "1360": "lectronic",
        "1361": "stein",
        "1362": "rankenstein",
        "1363": "count",
        "1364": "get",
        "1365": "round",
        "1366": "ating",
        "1367": "oun",
        "1368": " bod",
        "1369": " find",
        "1370": " free",
        "1371": " off",
        "1372": "itation",
        "1373": " town",
        "1374": " dire",
        "1375": " lost",
        "1376": " law",
        "1377": " each",
        "1378": " requ",
        "1379": "ides",
        "1380": "ably",
        "1381": " sudden",
        "1382": "ular",
        "1383": " already",
        "1384": " proceed",
        "1385": " change",
        "1386": "cip",
        "1387": " express",
        "1388": "weet",
        "1389": " countenance",
        "1390": " discovered",
        "1391": " monster",
        "1392": " suffer",
        "1393": " nearly",
        "1394": " believe",
        "1395": " existence",
        "1396": "This",
        "1397": "You",
        "1398": "night",
        "1399": "wor",
        "1400": " trem",
        "1401": " act",
        "1402": " sight",
        "1403": " full",
        "1404": "ical",
        "1405": " beheld",
        "1406": "ceive",
        "1407": "owing",
        "1408": "alth",
        "1409": " go",
        "1410": " girl",
        "1411": " As",
        "1412": " What",
        "1413": " enem",
        "1414": " ru",
        "1415": "were",
        "1416": " Yet",
        "1417": " looked",
        "1418": " loved",
        "1419": " spirits",
        "1420": "duced",
        "1421": " arrived",
        "1422": " resolved",
        "1423": " Victor",
        "1424": " terms",
        "1425": "ength",
        "1426": " (",
        "1427": "!\u201d",
        "1428": "iol",
        "1429": "part",
        "1430": "ting",
        "1431": "val",
        "1432": "will",
        "1433": " tru",
        "1434": "inter",
        "1435": "rep",
        "1436": " set",
        "1437": " say",
        "1438": "enry",
        "1439": "ont",
        "1440": " cold",
        "1441": " thousand",
        "1442": "oman",
        "1443": " lea",
        "1444": "cend",
        "1445": " once",
        "1446": "idence",
        "1447": " dec",
        "1448": " dead",
        "1449": " answ",
        "1450": " concer",
        "1451": "ility",
        "1452": "ended",
        "1453": "ousin",
        "1454": " And",
        "1455": "umst",
        "1456": " prof",
        "1457": "venge",
        "1458": "agers",
        "1459": " remain",
        "1460": "iew",
        "1461": " play",
        "1462": "loved",
        "1463": " refu",
        "1464": " native",
        "1465": " knowledge",
        "1466": " however",
        "1467": "ways",
        "1468": " brother",
        "1469": " look",
        "1470": " beauty",
        "1471": " appearance",
        "1472": " acqu",
        "1473": " murderer",
        "1474": "ircumst",
        "1475": " K",
        "1476": ".\u2019",
        "1477": "ey",
        "1478": "from",
        "1479": "full",
        "1480": "iam",
        "1481": "know",
        "1482": "lan",
        "1483": "ling",
        "1484": "nest",
        "1485": "ored",
        "1486": " tears",
        "1487": " aff",
        "1488": " sorrow",
        "1489": " fire",
        "1490": " dread",
        "1491": "ank",
        "1492": " path",
        "1493": " inhab",
        "1494": " langu",
        "1495": "irt",
        "1496": " grief",
        "1497": " fort",
        "1498": " forth",
        "1499": "rible",
        "1500": " step",
        "1501": "illiam",
        "1502": " How",
        "1503": " prov",
        "1504": " desire",
        "1505": "ield",
        "1506": "ruction",
        "1507": " others",
        "1508": "ploy",
        "1509": " lovely",
        "1510": " replied",
        "1511": "rence",
        "1512": " evil",
        "1513": " instant",
        "1514": " beautiful",
        "1515": " began",
        "1516": " manner",
        "1517": " called",
        "1518": "afie",
        "1519": " quickly",
        "1520": "Chapter",
        "1521": "We",
        "1522": "ace",
        "1523": "hil",
        "1524": "kind",
        "1525": "sion",
        "1526": "reas",
        "1527": " wand",
        "1528": " mod",
        "1529": " opp",
        "1530": " sk",
        "1531": " bo",
        "1532": " food",
        "1533": "isf",
        "1534": "iter",
        "1535": " coll",
        "1536": " die",
        "1537": "arr",
        "1538": "ingly",
        "1539": "ices",
        "1540": " head",
        "1541": " means",
        "1542": "irm",
        "1543": "ific",
        "1544": "iled",
        "1545": " sol",
        "1546": "oundation",
        "1547": "ement",
        "1548": "raw",
        "1549": " always",
        "1550": " spe",
        "1551": " spoke",
        "1552": "olation",
        "1553": " St",
        "1554": "ages",
        "1555": "osop",
        "1556": " eng",
        "1557": " Chapter",
        "1558": "aused",
        "1559": " ground",
        "1560": " rage",
        "1561": " returned",
        "1562": "clud",
        "1563": " kindness",
        "1564": " surround",
        "1565": " guil",
        "1566": " extrem",
        "1567": "comp",
        "1568": " person",
        "1569": " endeavoured",
        "1570": " turned",
        "1571": " utter",
        "1572": "ross",
        "1573": " concerning",
        "1574": " ran",
        "1575": "pe",
        "1576": "vour",
        "1577": "rely",
        "1578": " snow",
        "1579": " science",
        "1580": "ature",
        "1581": " fat",
        "1582": " fut",
        "1583": " hour",
        "1584": " home",
        "1585": " hast",
        "1586": "any",
        "1587": " less",
        "1588": " length",
        "1589": " stre",
        "1590": " viol",
        "1591": " view",
        "1592": " self",
        "1593": "ately",
        "1594": "ooks",
        "1595": " spent",
        "1596": " yourself",
        "1597": " His",
        "1598": " Henry",
        "1599": " rather",
        "1600": " Foundation",
        "1601": " account",
        "1602": "cons",
        "1603": "loom",
        "1604": " greater",
        "1605": " greatest",
        "1606": " discover",
        "1607": " seek",
        "1608": " brought",
        "1609": " hardly",
        "1610": " degree",
        "1611": " placed",
        "1612": " calm",
        "1613": " 2",
        "1614": " ir",
        "1615": " ri",
        "1616": "As",
        "1617": "ier",
        "1618": "iven",
        "1619": "long",
        "1620": "pose",
        "1621": "some",
        "1622": " wish",
        "1623": " mag",
        "1624": " sister",
        "1625": " sweet",
        "1626": " bene",
        "1627": " hor",
        "1628": "ities",
        "1629": " cap",
        "1630": " circumst",
        "1631": "esc",
        "1632": " died",
        "1633": " dang",
        "1634": "ask",
        "1635": "asp",
        "1636": " pain",
        "1637": " lake",
        "1638": " electronic",
        "1639": "ution",
        "1640": " beloved",
        "1641": " rend",
        "1642": "oward",
        "1643": "ury",
        "1644": " use",
        "1645": "this",
        "1646": " ang",
        "1647": "tern",
        "1648": " sum",
        "1649": "iles",
        "1650": "eak",
        "1651": " Al",
        "1652": " Safie",
        "1653": "ung",
        "1654": "aged",
        "1655": " desired",
        "1656": "atha",
        "1657": " agony",
        "1658": " door",
        "1659": " expressed",
        "1660": " lived",
        "1661": " adm",
        "1662": " distribut",
        "1663": " favour",
        "1664": " prep",
        "1665": " hopes",
        "1666": " longer",
        "1667": " suffic",
        "1668": " murder",
        "1669": "enevol",
        "1670": " wretch",
        "1671": " watch",
        "1672": " diffe",
        "1673": " tranqu",
        "1674": "\n       ",
        "1675": "oubt",
        "1676": " interest",
        "1677": " body",
        "1678": "fully",
        "1679": "by",
        "1680": "fect",
        "1681": "overy",
        "1682": "\u00e6",
        "1683": " woman",
        "1684": " min",
        "1685": " sleep",
        "1686": "enced",
        "1687": " bro",
        "1688": " filled",
        "1689": " high",
        "1690": " cor",
        "1691": " certain",
        "1692": " cousin",
        "1693": " dut",
        "1694": " par",
        "1695": "ars",
        "1696": "aring",
        "1697": "arch",
        "1698": " youth",
        "1699": " gloom",
        "1700": " anim",
        "1701": "\u201c\u2018",
        "1702": " stru",
        "1703": "cho",
        "1704": " ven",
        "1705": " virt",
        "1706": " seiz",
        "1707": " spot",
        "1708": " At",
        "1709": " Sometimes",
        "1710": " God",
        "1711": " For",
        "1712": " Frankenstein",
        "1713": " comple",
        "1714": " feeling",
        "1715": " abhor",
        "1716": " endured",
        "1717": " blood",
        "1718": " attention",
        "1719": "haps",
        "1720": " fixed",
        "1721": " surpr",
        "1722": " employ",
        "1723": " trave",
        "1724": " tort",
        "1725": " determ",
        "1726": " persu",
        "1727": " occupied",
        "1728": " Un",
        "1729": " subject",
        "1730": "He",
        "1731": "cure",
        "1732": "ell",
        "1733": "gress",
        "1734": "mn",
        "1735": "mer",
        "1736": "pro",
        "1737": "ring",
        "1738": "ught",
        "1739": "used",
        "1740": "under",
        "1741": " take",
        "1742": "iny",
        "1743": " way",
        "1744": " mine",
        "1745": " serv",
        "1746": "eri",
        "1747": " bar",
        "1748": " fall",
        "1749": " hide",
        "1750": "ison",
        "1751": " car",
        "1752": " cle",
        "1753": " phil",
        "1754": " eas",
        "1755": "ute",
        "1756": " real",
        "1757": " revenge",
        "1758": "otion",
        "1759": " give",
        "1760": " deare",
        "1761": " hist",
        "1762": "geance",
        "1763": "live",
        "1764": " various",
        "1765": " unable",
        "1766": " unhapp",
        "1767": " William",
        "1768": " agre",
        "1769": " perceived",
        "1770": " perhaps",
        "1771": "irely",
        "1772": "ween",
        "1773": " obt",
        "1774": " quitted",
        "1775": " natural",
        "1776": "ictim",
        "1777": "exp",
        "1778": " cottagers",
        "1779": "aves",
        "1780": " moon",
        "1781": " destroyed",
        "1782": " support",
        "1783": " consider",
        "1784": "laimed",
        "1785": " rememb",
        "1786": " protect",
        "1787": " Agatha",
        "1788": " England",
        "1789": " suddenly",
        "1790": " enemy",
        "1791": " future",
        "1792": " anguish",
        "1793": "\u00e6mon",
        "1794": " vengeance",
        "1795": " philosop",
        "1796": " \u2018",
        "1797": "When",
        "1798": "cour",
        "1799": "ek",
        "1800": "friend",
        "1801": "gr",
        "1802": "hold",
        "1803": "iable",
        "1804": "iod",
        "1805": "pid",
        "1806": "pos",
        "1807": " tri",
        "1808": " trees",
        "1809": " went",
        "1810": " wild",
        "1811": " wished",
        "1812": " mad",
        "1813": "erly",
        "1814": "atter",
        "1815": " drew",
        "1816": " thy",
        "1817": " ins",
        "1818": " eag",
        "1819": " received",
        "1820": " reason",
        "1821": "imp",
        "1822": " formed",
        "1823": "ames",
        "1824": "liar",
        "1825": "like",
        "1826": " conv",
        "1827": " convers",
        "1828": " sole",
        "1829": " descri",
        "1830": "formed",
        "1831": " creatures",
        "1832": " suffered",
        "1833": " stranger",
        "1834": " visit",
        "1835": " satisf",
        "1836": " imagination",
        "1837": " innocent",
        "1838": " laws",
        "1839": " true",
        "1840": " answer",
        "1841": " inhabit",
        "1842": " sufficient",
        "1843": "choly",
        "1844": " ign",
        "1845": "aid",
        "1846": "dist",
        "1847": "ft",
        "1848": "low",
        "1849": "pre",
        "1850": "ug",
        "1851": "when",
        "1852": "xt",
        "1853": "ze",
        "1854": " warm",
        "1855": " mist",
        "1856": " sw",
        "1857": " sent",
        "1858": " sick",
        "1859": "ern",
        "1860": " fr",
        "1861": " hid",
        "1862": "ising",
        "1863": "essel",
        "1864": "orm",
        "1865": "orn",
        "1866": "anced",
        "1867": "ash",
        "1868": "aster",
        "1869": "omp",
        "1870": "omed",
        "1871": " lim",
        "1872": "uth",
        "1873": " beings",
        "1874": " health",
        "1875": " rev",
        "1876": "ented",
        "1877": "oted",
        "1878": " meet",
        "1879": "ows",
        "1880": " gener",
        "1881": "riage",
        "1882": " itself",
        "1883": "thought",
        "1884": " vill",
        "1885": " vessel",
        "1886": " shore",
        "1887": "they",
        "1888": "their",
        "1889": "ract",
        "1890": " speak",
        "1891": " allowed",
        "1892": "rance",
        "1893": " disapp",
        "1894": " necess",
        "1895": " jud",
        "1896": " period",
        "1897": " abs",
        "1898": " attempt",
        "1899": " Oh",
        "1900": "what",
        "1901": " face",
        "1902": "ives",
        "1903": "iving",
        "1904": " cloud",
        "1905": "ancy",
        "1906": "spect",
        "1907": "should",
        "1908": " passion",
        "1909": " mountain",
        "1910": "formation",
        "1911": " murdered",
        "1912": " followed",
        "1913": " deeply",
        "1914": " condu",
        "1915": " creation",
        "1916": " exclaimed",
        "1917": " observed",
        "1918": " between",
        "1919": " sympathy",
        "1920": " understand",
        "1921": "aughter",
        "1922": " proceeded",
        "1923": " leave",
        "1924": " steps",
        "1925": " surrounded",
        "1926": " extreme",
        "1927": " different",
        "1928": " history",
        "1929": "In",
        "1930": "br",
        "1931": "mand",
        "1932": "mount",
        "1933": "nat",
        "1934": "og",
        "1935": "rong",
        "1936": "use",
        "1937": "uished",
        "1938": "\ufffd\ufffd",
        "1939": "\u2122",
        "1940": " task",
        "1941": " sank",
        "1942": "ery",
        "1943": "erve",
        "1944": "att",
        "1945": "enc",
        "1946": "eness",
        "1947": "ons",
        "1948": " bur",
        "1949": " benevol",
        "1950": "itz",
        "1951": " ca",
        "1952": " covered",
        "1953": " da",
        "1954": " doubt",
        "1955": " put",
        "1956": "ometh",
        "1957": " eB",
        "1958": " ele",
        "1959": " equ",
        "1960": " half",
        "1961": " having",
        "1962": "cell",
        "1963": " mem",
        "1964": " mean",
        "1965": " given",
        "1966": "ets",
        "1967": "ayed",
        "1968": "aded",
        "1969": "ills",
        "1970": " succ",
        "1971": "ouring",
        "1972": " vain",
        "1973": " victim",
        "1974": " short",
        "1975": " seen",
        "1976": "these",
        "1977": "selves",
        "1978": " sail",
        "1979": " progress",
        "1980": "ushed",
        "1981": " experi",
        "1982": " entreat",
        "1983": " lips",
        "1984": " endure",
        "1985": " quit",
        "1986": "soci",
        "1987": " On",
        "1988": " against",
        "1989": " rapid",
        "1990": " impro",
        "1991": "ape",
        "1992": " purpose",
        "1993": "ship",
        "1994": " events",
        "1995": " moments",
        "1996": " small",
        "1997": "assion",
        "1998": " courage",
        "1999": " writ",
        "2000": " wonderful",
        "2001": " secret",
        "2002": " study",
        "2003": " copyright",
        "2004": " learned",
        "2005": " language",
        "2006": " danger",
        "2007": " rendered",
        "2008": "owards",
        "2009": " tranquill",
        "2010": " easily",
        "2011": "omething",
        "2012": "\n   ",
        "2013": " ed",
        "2014": " ke",
        "2015": "EN",
        "2016": "bled",
        "2017": "day",
        "2018": "dest",
        "2019": "gg",
        "2020": "hood",
        "2021": "ires",
        "2022": "mit",
        "2023": "rous",
        "2024": "rum",
        "2025": " tal",
        "2026": " av",
        "2027": " ast",
        "2028": "ines",
        "2029": "rec",
        "2030": " son",
        "2031": "erful",
        "2032": "enes",
        "2033": "only",
        "2034": " bre",
        "2035": " bes",
        "2036": " fre",
        "2037": " ful",
        "2038": " fate",
        "2039": " cast",
        "2040": " toil",
        "2041": " don",
        "2042": " div",
        "2043": " dared",
        "2044": " d\u00e6mon",
        "2045": " inqu",
        "2046": " name",
        "2047": " led",
        "2048": " effect",
        "2049": "stad",
        "2050": "stant",
        "2051": " hear",
        "2052": " hell",
        "2053": " melan",
        "2054": "iration",
        "2055": "rived",
        "2056": " demand",
        "2057": " wept",
        "2058": "thing",
        "2059": "amp",
        "2060": " conce",
        "2061": " super",
        "2062": " exert",
        "2063": " voy",
        "2064": "acc",
        "2065": " spec",
        "2066": "eless",
        "2067": "olstad",
        "2068": "ople",
        "2069": "ovel",
        "2070": "ortion",
        "2071": "osity",
        "2072": " desert",
        "2073": " imm",
        "2074": "ishing",
        "2075": " Be",
        "2076": "ief",
        "2077": "sured",
        "2078": " entirely",
        "2079": " black",
        "2080": " eye",
        "2081": "ngolstad",
        "2082": " because",
        "2083": " resp",
        "2084": " attend",
        "2085": " creator",
        "2086": " prev",
        "2087": "medi",
        "2088": " discovery",
        "2089": " close",
        "2090": " destruction",
        "2091": " occur",
        "2092": " children",
        "2093": "fortunate",
        "2094": " visited",
        "2095": " crime",
        "2096": " across",
        "2097": " course",
        "2098": " manners",
        "2099": " sounds",
        "2100": " letters",
        "2101": " promise",
        "2102": " misfortune",
        "2103": " engaged",
        "2104": " unhappy",
        "2105": " fulf",
        "2106": " melancholy",
        "2107": "ngolstadt",
        "2108": "And",
        "2109": "Clerval",
        "2110": "ave",
        "2111": "after",
        "2112": "cle",
        "2113": "ches",
        "2114": "ium",
        "2115": "iety",
        "2116": "ms",
        "2117": "towards",
        "2118": "ued",
        "2119": "where",
        "2120": "heart",
        "2121": "hether",
        "2122": " awo",
        "2123": "ins",
        "2124": " mal",
        "2125": " sad",
        "2126": " sought",
        "2127": " situ",
        "2128": " something",
        "2129": "ering",
        "2130": "ative",
        "2131": " bed",
        "2132": " ban",
        "2133": " bus",
        "2134": " bran",
        "2135": " back",
        "2136": " fright",
        "2137": " hovel",
        "2138": "itness",
        "2139": "itated",
        "2140": "itions",
        "2141": " co",
        "2142": " cried",
        "2143": "orse",
        "2144": " pe",
        "2145": " past",
        "2146": " threat",
        "2147": " thirst",
        "2148": " none",
        "2149": " narr",
        "2150": " names",
        "2151": "icular",
        "2152": " why",
        "2153": "ident",
        "2154": " del",
        "2155": " weep",
        "2156": " anx",
        "2157": "ourn",
        "2158": " exec",
        "2159": "ool",
        "2160": "empl",
        "2161": "aces",
        "2162": "elt",
        "2163": " unf",
        "2164": " union",
        "2165": " prospect",
        "2166": "usion",
        "2167": " Mr",
        "2168": " descend",
        "2169": " art",
        "2170": " rain",
        "2171": " Par",
        "2172": "retched",
        "2173": " comply",
        "2174": "rupt",
        "2175": " overcome",
        "2176": "ngth",
        "2177": " scar",
        "2178": "anged",
        "2179": " consolation",
        "2180": " distance",
        "2181": " point",
        "2182": " rose",
        "2183": " Do",
        "2184": " recoll",
        "2185": " commence",
        "2186": " commun",
        "2187": " reflections",
        "2188": " water",
        "2189": " pursue",
        "2190": " regard",
        "2191": " open",
        "2192": " opened",
        "2193": "husi",
        "2194": " approached",
        "2195": " heavens",
        "2196": "feelings",
        "2197": " profess",
        "2198": " boat",
        "2199": " speed",
        "2200": " horrible",
        "2201": " seized",
        "2202": " dearest",
        "2203": " conversation",
        "2204": " solemn",
        "2205": "cellent",
        "2206": " memory",
        "2207": " success",
        "2208": " awoke",
        "2209": " ide",
        "2210": " esc",
        "2211": "Elizabeth",
        "2212": "cated",
        "2213": "cott",
        "2214": "cceed",
        "2215": "every",
        "2216": "eks",
        "2217": "ging",
        "2218": "iosity",
        "2219": "lu",
        "2220": "les",
        "2221": "leness",
        "2222": "oon",
        "2223": "oint",
        "2224": "ubl",
        "2225": "win",
        "2226": "would",
        "2227": "zed",
        "2228": " tend",
        "2229": "inct",
        "2230": "inal",
        "2231": " mer",
        "2232": " bir",
        "2233": " Ingolstadt",
        "2234": " hon",
        "2235": " hold",
        "2236": "asion",
        "2237": " thou",
        "2238": " inv",
        "2239": "inguished",
        "2240": " leav",
        "2241": " latter",
        "2242": "icense",
        "2243": " hab",
        "2244": " hel",
        "2245": "sec",
        "2246": "othing",
        "2247": " asked",
        "2248": " associ",
        "2249": " decl",
        "2250": " strong",
        "2251": "chant",
        "2252": " fever",
        "2253": " Th",
        "2254": " Tur",
        "2255": " exam",
        "2256": " soci",
        "2257": "ember",
        "2258": " There",
        "2259": "acqu",
        "2260": " prop",
        "2261": "ope",
        "2262": "ishment",
        "2263": "urned",
        "2264": "urning",
        "2265": " does",
        "2266": "supp",
        "2267": "before",
        "2268": " obli",
        "2269": " accord",
        "2270": " scenes",
        "2271": " consum",
        "2272": " precip",
        "2273": " grasp",
        "2274": " During",
        "2275": " restored",
        "2276": " undert",
        "2277": " early",
        "2278": " afterwards",
        "2279": "lieve",
        "2280": " possess",
        "2281": " truth",
        "2282": " pursuit",
        "2283": " departure",
        "2284": " assist",
        "2285": " remember",
        "2286": " innocence",
        "2287": " Arab",
        "2288": "desp",
        "2289": " walked",
        "2290": " misfortunes",
        "2291": " sufferings",
        "2292": " afford",
        "2293": " fortun",
        "2294": "reased",
        "2295": " sky",
        "2296": "iterary",
        "2297": " guilt",
        "2298": " travell",
        "2299": " United",
        "2300": " agreement",
        "2301": " necessary",
        "2302": "ency",
        "2303": " tranquillity",
        "2304": " aston",
        "2305": " conceal",
        "2306": " scarce",
        "2307": "ublic",
        "2308": " right",
        "2309": "Gutenberg",
        "2310": "She",
        "2311": "che",
        "2312": "creat",
        "2313": "came",
        "2314": "ead",
        "2315": "ges",
        "2316": "great",
        "2317": "more",
        "2318": "prom",
        "2319": "poss",
        "2320": "place",
        "2321": "rnest",
        "2322": "ues",
        "2323": " tem",
        "2324": " aw",
        "2325": " wa",
        "2326": " whether",
        "2327": " witness",
        "2328": " mention",
        "2329": " sing",
        "2330": "ater",
        "2331": "atitude",
        "2332": "ouds",
        "2333": "enet",
        "2334": " fo",
        "2335": " field",
        "2336": "iss",
        "2337": " dare",
        "2338": " daughter",
        "2339": "anim",
        "2340": "assed",
        "2341": " pict",
        "2342": " threw",
        "2343": " includ",
        "2344": "let",
        "2345": "vey",
        "2346": "cean",
        "2347": "oth",
        "2348": "irwin",
        "2349": " gra",
        "2350": " gone",
        "2351": " forward",
        "2352": "ries",
        "2353": " assured",
        "2354": "adem",
        "2355": "thr",
        "2356": "pped",
        "2357": "chive",
        "2358": " TH",
        "2359": " excess",
        "2360": " vol",
        "2361": "ulty",
        "2362": "raph",
        "2363": "seless",
        "2364": "istrate",
        "2365": " word",
        "2366": "antic",
        "2367": " allow",
        "2368": " Her",
        "2369": " produced",
        "2370": " Mont",
        "2371": "agraph",
        "2372": " amiable",
        "2373": " apparent",
        "2374": " Ernest",
        "2375": "oney",
        "2376": "cient",
        "2377": " expl",
        "2378": " Ch",
        "2379": " retired",
        "2380": " blind",
        "2381": " accomp",
        "2382": " One",
        "2383": "who",
        "2384": " distur",
        "2385": " fair",
        "2386": " presence",
        "2387": "itting",
        "2388": "ignity",
        "2389": " instrum",
        "2390": " former",
        "2391": " No",
        "2392": " emb",
        "2393": " continually",
        "2394": " powers",
        "2395": " reflected",
        "2396": " moved",
        "2397": " believed",
        "2398": " trans",
        "2399": "welling",
        "2400": " condem",
        "2401": "disc",
        "2402": " labour",
        "2403": " labours",
        "2404": " departed",
        "2405": "eased",
        "2406": " enjoyed",
        "2407": " ardour",
        "2408": " understood",
        "2409": " listen",
        "2410": " silent",
        "2411": " expression",
        "2412": " Kirwin",
        "2413": " wandered",
        "2414": " solitude",
        "2415": " fatig",
        "2416": " strength",
        "2417": " capable",
        "2418": " determined",
        "2419": " hideous",
        "2420": " clear",
        "2421": " obtain",
        "2422": " ignor",
        "2423": " frame",
        "2424": " divine",
        "2425": " ideas",
        "2426": " society",
        "2427": "acquainted",
        "2428": " scarcely",
        "2429": "ademark",
        "2430": "Al",
        "2431": "Do",
        "2432": "Wh",
        "2433": "aff",
        "2434": "bur",
        "2435": "could",
        "2436": "ev",
        "2437": "how",
        "2438": "hib",
        "2439": "ix",
        "2440": "ience",
        "2441": "just",
        "2442": "jud",
        "2443": "lish",
        "2444": "mitted",
        "2445": "ner",
        "2446": "occ",
        "2447": "par",
        "2448": "pse",
        "2449": "sc",
        "2450": "und",
        "2451": "ww",
        "2452": "ying",
        "2453": "hel",
        "2454": "inte",
        "2455": " want",
        "2456": " med",
        "2457": " mut",
        "2458": " sledge",
        "2459": " sense",
        "2460": "atred",
        "2461": "atory",
        "2462": "attered",
        "2463": " fin",
        "2464": " fled",
        "2465": " firm",
        "2466": " hate",
        "2467": " hun",
        "2468": " hatred",
        "2469": " city",
        "2470": " told",
        "2471": " dro",
        "2472": " draw",
        "2473": "orne",
        "2474": "asm",
        "2475": " pay",
        "2476": " pret",
        "2477": " parent",
        "2478": " paused",
        "2479": " paid",
        "2480": "arg",
        "2481": "arge",
        "2482": " information",
        "2483": "inguish",
        "2484": " nur",
        "2485": " lad",
        "2486": " etern",
        "2487": "icated",
        "2488": "stand",
        "2489": "vel",
        "2490": "ceiving",
        "2491": "ote",
        "2492": "als",
        "2493": " gard",
        "2494": " gained",
        "2495": "idst",
        "2496": "idents",
        "2497": "thy",
        "2498": " convey",
        "2499": " story",
        "2500": " fee",
        "2501": " feet",
        "2502": " susp",
        "2503": " succeed",
        "2504": " except",
        "2505": " excellent",
        "2506": " shut",
        "2507": " shad",
        "2508": " season",
        "2509": "ested",
        "2510": "estic",
        "2511": "there",
        "2512": " These",
        "2513": " spring",
        "2514": "arted",
        "2515": " unfortunate",
        "2516": " prob",
        "2517": "ush",
        "2518": " Sw",
        "2519": " Why",
        "2520": " agitation",
        "2521": " immedi",
        "2522": " By",
        "2523": " jo",
        "2524": "cious",
        "2525": " enthusi",
        "2526": " bless",
        "2527": " access",
        "2528": "lected",
        "2529": " plan",
        "2530": "lock",
        "2531": " created",
        "2532": " Literary",
        "2533": " fail",
        "2534": " clouds",
        "2535": " De",
        "2536": " prison",
        "2537": " recovered",
        "2538": " event",
        "2539": " passions",
        "2540": " 17",
        "2541": " pleasant",
        "2542": " sensation",
        "2543": "bling",
        "2544": "duce",
        "2545": " cheerful",
        "2546": " smiles",
        "2547": " pursued",
        "2548": " arrive",
        "2549": " begin",
        "2550": " companions",
        "2551": " north",
        "2552": " diffic",
        "2553": " curiosity",
        "2554": "mission",
        "2555": " devil",
        "2556": "itherto",
        "2557": " addressed",
        "2558": " marriage",
        "2559": " justice",
        "2560": " walk",
        "2561": " terri",
        "2562": " silence",
        "2563": " directed",
        "2564": "known",
        "2565": " instantly",
        "2566": " States",
        "2567": " river",
        "2568": " circumstances",
        "2569": " Alas",
        "2570": " watching",
        "2571": " paragraph",
        "2572": " surprised",
        "2573": " torture",
        "2574": " protectors",
        "2575": " philosophy",
        "2576": " describe",
        "2577": " satisfied",
        "2578": " village",
        "2579": " conduct",
        "2580": " donations",
        "2581": " voyage",
        "2582": " frightful",
        "2583": " honour",
        "2584": " hunger",
        "2585": " ve",
        "2586": "ER",
        "2587": "How",
        "2588": "No",
        "2589": "Project",
        "2590": "Thus",
        "2591": "hind",
        "2592": "ior",
        "2593": "iet",
        "2594": "iliar",
        "2595": "might",
        "2596": "oved",
        "2597": "pet",
        "2598": "pers",
        "2599": "ror",
        "2600": "tr",
        "2601": "ton",
        "2602": "ually",
        "2603": "whel",
        "2604": " times",
        "2605": " tried",
        "2606": " apart",
        "2607": "into",
        "2608": "ref",
        "2609": "reg",
        "2610": " wis",
        "2611": " winter",
        "2612": " waves",
        "2613": " motion",
        "2614": " ought",
        "2615": " ocean",
        "2616": " slight",
        "2617": " sign",
        "2618": " breat",
        "2619": " bree",
        "2620": " books",
        "2621": " fres",
        "2622": " fig",
        "2623": " har",
        "2624": "itary",
        "2625": " ce",
        "2626": " ceased",
        "2627": " pity",
        "2628": " pap",
        "2629": "armed",
        "2630": " inn",
        "2631": " low",
        "2632": "stru",
        "2633": "sem",
        "2634": "otions",
        "2635": " met",
        "2636": "verse",
        "2637": "etter",
        "2638": " forget",
        "2639": "aint",
        "2640": " wel",
        "2641": " conceived",
        "2642": " sto",
        "2643": " stream",
        "2644": " stars",
        "2645": " feared",
        "2646": " shud",
        "2647": "ulated",
        "2648": "allowed",
        "2649": "estion",
        "2650": " herself",
        "2651": " alter",
        "2652": "olved",
        "2653": "olate",
        "2654": "orted",
        "2655": "asted",
        "2656": " agree",
        "2657": " need",
        "2658": " Even",
        "2659": " enough",
        "2660": "haust",
        "2661": " perfect",
        "2662": " expect",
        "2663": " expected",
        "2664": "been",
        "2665": " retreat",
        "2666": " mighty",
        "2667": " consent",
        "2668": "These",
        "2669": " greatly",
        "2670": "versity",
        "2671": " reflection",
        "2672": "prise",
        "2673": "hys",
        "2674": " torment",
        "2675": " detail",
        "2676": " increased",
        "2677": " presented",
        "2678": " following",
        "2679": " related",
        "2680": "ighb",
        "2681": " darkness",
        "2682": " woods",
        "2683": " devoted",
        "2684": " bestow",
        "2685": " least",
        "2686": " excited",
        "2687": " better",
        "2688": " charge",
        "2689": " charact",
        "2690": " objects",
        "2691": "country",
        "2692": "countenance",
        "2693": " acquainted",
        "2694": " modern",
        "2695": " utterly",
        "2696": " magistrate",
        "2697": " benef",
        "2698": " admiration",
        "2699": " favourite",
        "2700": " duty",
        "2701": " carried",
        "2702": " remembered",
        "2703": " species",
        "2704": " branches",
        "2705": " people",
        "2706": "cottage",
        "2707": " Turk",
        "2708": " obliged",
        "2709": " undertaking",
        "2710": " Arabian",
        "2711": "burgh",
        "2712": " lady",
        "2713": " enthusiasm",
        "2714": " fresh",
        "2715": " J",
        "2716": "Be",
        "2717": "His",
        "2718": "IT",
        "2719": "RA",
        "2720": "Yet",
        "2721": "cr",
        "2722": "cent",
        "2723": "cured",
        "2724": "do",
        "2725": "fl",
        "2726": "gutenberg",
        "2727": "mist",
        "2728": "nific",
        "2729": "oid",
        "2730": "pres",
        "2731": "she",
        "2732": "until",
        "2733": " tear",
        "2734": " aid",
        "2735": " age",
        "2736": "inted",
        "2737": "inced",
        "2738": " mus",
        "2739": " mourn",
        "2740": " money",
        "2741": " slow",
        "2742": "erland",
        "2743": "ences",
        "2744": " bos",
        "2745": " bright",
        "2746": " fal",
        "2747": " fro",
        "2748": " fond",
        "2749": " fancy",
        "2750": " hur",
        "2751": " hills",
        "2752": " hitherto",
        "2753": " cab",
        "2754": "org",
        "2755": "orious",
        "2756": " pat",
        "2757": " peas",
        "2758": " public",
        "2759": " thing",
        "2760": " three",
        "2761": " insp",
        "2762": "icked",
        "2763": " belong",
        "2764": " behold",
        "2765": " hero",
        "2766": " render",
        "2767": " white",
        "2768": "iment",
        "2769": " gre",
        "2770": "rose",
        "2771": "rive",
        "2772": " ask",
        "2773": "ability",
        "2774": " ste",
        "2775": " storm",
        "2776": "change",
        "2777": " sust",
        "2778": " exhib",
        "2779": " van",
        "2780": " vast",
        "2781": "uls",
        "2782": "ulate",
        "2783": "alley",
        "2784": "endous",
        "2785": "endeav",
        "2786": " Their",
        "2787": "acri",
        "2788": " After",
        "2789": "ustomed",
        "2790": "ortun",
        "2791": " changed",
        "2792": " next",
        "2793": " neighb",
        "2794": "ption",
        "2795": " arran",
        "2796": "aret",
        "2797": "arewell",
        "2798": " round",
        "2799": " noble",
        "2800": "never",
        "2801": " remains",
        "2802": " remorse",
        "2803": " compassion",
        "2804": " themselves",
        "2805": "akes",
        "2806": " above",
        "2807": " blue",
        "2808": " contempl",
        "2809": " overwhel",
        "2810": "anging",
        "2811": " OF",
        "2812": " evening",
        "2813": " pressed",
        "2814": " repose",
        "2815": " longed",
        "2816": "myself",
        "2817": " evidence",
        "2818": " instead",
        "2819": " committed",
        "2820": " occasion",
        "2821": " fears",
        "2822": " possible",
        "2823": " waters",
        "2824": " trademark",
        "2825": "ception",
        "2826": " flow",
        "2827": " degrees",
        "2828": " occupations",
        "2829": " write",
        "2830": "miserable",
        "2831": " studies",
        "2832": " Archive",
        "2833": " wretchedness",
        "2834": " approach",
        "2835": " English",
        "2836": " dreams",
        "2837": " advanced",
        "2838": "gether",
        "2839": " trembled",
        "2840": " dreadful",
        "2841": " guilty",
        "2842": " fatal",
        "2843": " beneath",
        "2844": " certainly",
        "2845": " duties",
        "2846": " gloomy",
        "2847": " virtue",
        "2848": " complete",
        "2849": " employed",
        "2850": " reality",
        "2851": " inhabitants",
        "2852": " limbs",
        "2853": "natural",
        "2854": " benevolent",
        "2855": "itzerland",
        "2856": " eBook",
        "2857": " sailors",
        "2858": " experienced",
        "2859": " rapidly",
        "2860": " break",
        "2861": " Paris",
        "2862": " leaves",
        "2863": " associated",
        "2864": " condemned",
        "2865": " fatigue",
        "2866": " parents",
        "2867": "argaret",
        "2868": " eternal",
        "2869": " garden",
        "2870": " figure",
        "2871": " bosom",
        "2872": " cabin",
        "2873": " 3",
        "2874": "._",
        "2875": "CT",
        "2876": "Felix",
        "2877": "RE",
        "2878": "What",
        "2879": "_,",
        "2880": "aly",
        "2881": "ald",
        "2882": "bar",
        "2883": "cre",
        "2884": "can",
        "2885": "cked",
        "2886": "det",
        "2887": "ew",
        "2888": "ech",
        "2889": "fi",
        "2890": "found",
        "2891": "father",
        "2892": "gged",
        "2893": "ming",
        "2894": "mur",
        "2895": "pleas",
        "2896": "rained",
        "2897": "sou",
        "2898": "then",
        "2899": "uous",
        "2900": " able",
        "2901": " alive",
        "2902": " arose",
        "2903": "inf",
        "2904": "inary",
        "2905": " wre",
        "2906": " wound",
        "2907": " wife",
        "2908": " ma",
        "2909": " move",
        "2910": " mild",
        "2911": " mark",
        "2912": " thee",
        "2913": " ori",
        "2914": " ser",
        "2915": " sides",
        "2916": "erc",
        "2917": "enances",
        "2918": " burning",
        "2919": " fly",
        "2920": " fur",
        "2921": " fore",
        "2922": " five",
        "2923": "iting",
        "2924": "itate",
        "2925": " clo",
        "2926": " claim",
        "2927": " caused",
        "2928": " dom",
        "2929": "anied",
        "2930": " penet",
        "2931": " thick",
        "2932": " thunder",
        "2933": " inten",
        "2934": " lif",
        "2935": " eff",
        "2936": "ics",
        "2937": "utes",
        "2938": " heav",
        "2939": " renew",
        "2940": "entions",
        "2941": "sequ",
        "2942": " year",
        "2943": "urged",
        "2944": "iminal",
        "2945": "ctions",
        "2946": "versed",
        "2947": "verty",
        "2948": "alities",
        "2949": " gro",
        "2950": " gover",
        "2951": " und",
        "2952": " forced",
        "2953": "ripp",
        "2954": " ascend",
        "2955": " delive",
        "2956": " weak",
        "2957": " ange",
        "2958": "amed",
        "2959": "amber",
        "2960": "lig",
        "2961": "lief",
        "2962": " conn",
        "2963": " stood",
        "2964": "ified",
        "2965": " To",
        "2966": "ource",
        "2967": "ilst",
        "2968": " val",
        "2969": " valley",
        "2970": " soot",
        "2971": "quis",
        "2972": "inds",
        "2973": "them",
        "2974": "isted",
        "2975": " along",
        "2976": "aced",
        "2977": "acity",
        "2978": "dered",
        "2979": "death",
        "2980": "antime",
        "2981": " mankind",
        "2982": " Margaret",
        "2983": "unge",
        "2984": "again",
        "2985": "ortal",
        "2986": " chief",
        "2987": " applic",
        "2988": " Wh",
        "2989": " diss",
        "2990": " displ",
        "2991": " dispos",
        "2992": " neg",
        "2993": " neck",
        "2994": " arms",
        "2995": " Bl",
        "2996": " ram",
        "2997": " rushed",
        "2998": " perform",
        "2999": " permission",
        "3000": " remark",
        "3001": " explan",
        "3002": " anyone",
        "3003": " contr",
        "3004": "sole",
        "3005": "rempe",
        "3006": " plain",
        "3007": "fell",
        "3008": " Lace",
        "3009": " License",
        "3010": " prey",
        "3011": " preced",
        "3012": " poverty",
        "3013": " known",
        "3014": " rock",
        "3015": " rav",
        "3016": "ignation",
        "3017": " restore",
        "3018": " earnest",
        "3019": " record",
        "3020": "shall",
        "3021": " particular",
        "3022": " forms",
        "3023": " confess",
        "3024": " sunk",
        "3025": " crimes",
        "3026": " smile",
        "3027": " gazed",
        "3028": " endeavour",
        "3029": " familiar",
        "3030": " diff",
        "3031": " curse",
        "3032": " uttered",
        "3033": " follow",
        "3034": " relate",
        "3035": " Rh",
        "3036": " illness",
        "3037": " considered",
        "3038": " considerable",
        "3039": "happiness",
        "3040": " promised",
        "3041": " bestowed",
        "3042": " secure",
        "3043": " enterprise",
        "3044": " ardent",
        "3045": " ardently",
        "3046": "ibly",
        "3047": " bitterly",
        "3048": " listened",
        "3049": " terror",
        "3050": "continu",
        "3051": "feeling",
        "3052": " ruin",
        "3053": " looking",
        "3054": " Krempe",
        "3055": " provide",
        "3056": " solitary",
        "3057": "cluded",
        "3058": " violence",
        "3059": " broken",
        "3060": " corpse",
        "3061": " strugg",
        "3062": " abhorred",
        "3063": "course",
        "3064": " trial",
        "3065": " eagerly",
        "3066": " disappeared",
        "3067": " edu",
        "3068": " keep",
        "3069": " superior",
        "3070": " respect",
        "3071": " recollection",
        "3072": " help",
        "3073": "despair",
        "3074": " witnesses",
        "3075": " picture",
        "3076": " apparently",
        "3077": " ignorant",
        "3078": " Switzerland",
        "3079": " breeze",
        "3080": " false",
        "3081": "aldman",
        "3082": " Lacey",
        "3083": " 4",
        "3084": " urged",
        "3085": "**",
        "3086": "Ar",
        "3087": "Frankenstein",
        "3088": "ND",
        "3089": "Oh",
        "3090": "To",
        "3091": "bound",
        "3092": "bition",
        "3093": "cation",
        "3094": "cast",
        "3095": "coun",
        "3096": "ding",
        "3097": "fety",
        "3098": "gs",
        "3099": "gone",
        "3100": "iver",
        "3101": "iated",
        "3102": "iversity",
        "3103": "jo",
        "3104": "lab",
        "3105": "min",
        "3106": "mine",
        "3107": "made",
        "3108": "oor",
        "3109": "pur",
        "3110": "rain",
        "3111": "rad",
        "3112": "rated",
        "3113": "uliar",
        "3114": "wise",
        "3115": "yet",
        "3116": " tw",
        "3117": " ten",
        "3118": " taking",
        "3119": " aunt",
        "3120": "inations",
        "3121": "incip",
        "3122": " wo",
        "3123": " www",
        "3124": " wicked",
        "3125": " mult",
        "3126": " master",
        "3127": " sle",
        "3128": " shed",
        "3129": " sla",
        "3130": " side",
        "3131": " simp",
        "3132": "erness",
        "3133": "athe",
        "3134": "oused",
        "3135": "onoun",
        "3136": " bent",
        "3137": " hig",
        "3138": "isit",
        "3139": "ision",
        "3140": " together",
        "3141": " der",
        "3142": " dra",
        "3143": " done",
        "3144": " dwelling",
        "3145": "ann",
        "3146": " pec",
        "3147": " phys",
        "3148": "arily",
        "3149": " things",
        "3150": " inj",
        "3151": " nerv",
        "3152": " lect",
        "3153": " lose",
        "3154": " lie",
        "3155": "iced",
        "3156": "uted",
        "3157": " hair",
        "3158": " bef",
        "3159": " heat",
        "3160": " reve",
        "3161": " really",
        "3162": " relieve",
        "3163": " whilst",
        "3164": "ursed",
        "3165": "irmed",
        "3166": "although",
        "3167": "alton",
        "3168": " gain",
        "3169": "iding",
        "3170": " useless",
        "3171": " forg",
        "3172": " asp",
        "3173": " weather",
        "3174": "aying",
        "3175": " ancient",
        "3176": "life",
        "3177": " conject",
        "3178": " conceive",
        "3179": " stretched",
        "3180": " surely",
        "3181": " exhaust",
        "3182": " var",
        "3183": " shone",
        "3184": "ulse",
        "3185": " island",
        "3186": "eau",
        "3187": "earer",
        "3188": " All",
        "3189": " sake",
        "3190": " safety",
        "3191": "delight",
        "3192": "umed",
        "3193": "umber",
        "3194": "uments",
        "3195": "umph",
        "3196": " proper",
        "3197": " procure",
        "3198": " Sh",
        "3199": " Some",
        "3200": "aste",
        "3201": " apply",
        "3202": " design",
        "3203": " With",
        "3204": " Waldman",
        "3205": " disg",
        "3206": " arg",
        "3207": " rise",
        "3208": " doing",
        "3209": "\n\n\n",
        "3210": "ondon",
        "3211": " liber",
        "3212": " living",
        "3213": " blo",
        "3214": " miseries",
        "3215": " accustomed",
        "3216": "perceived",
        "3217": "remain",
        "3218": " residence",
        "3219": "conf",
        "3220": " OR",
        "3221": " distant",
        "3222": " distinct",
        "3223": " fact",
        "3224": "ossible",
        "3225": " destiny",
        "3226": " returning",
        "3227": " hoped",
        "3228": "aped",
        "3229": "rench",
        "3230": " deprived",
        "3231": " passing",
        "3232": " passage",
        "3233": " loath",
        "3234": " surv",
        "3235": " fearful",
        "3236": "ipate",
        "3237": " thrown",
        "3238": "appro",
        "3239": "everal",
        "3240": " glad",
        "3241": " glac",
        "3242": " window",
        "3243": " mock",
        "3244": "formity",
        "3245": "ultiv",
        "3246": " trace",
        "3247": " gentleness",
        "3248": " imagined",
        "3249": " court",
        "3250": " regret",
        "3251": " obscure",
        "3252": " enjoyment",
        "3253": " marked",
        "3254": " bitterness",
        "3255": " indul",
        "3256": " learn",
        "3257": " direct",
        "3258": "work",
        "3259": " going",
        "3260": " refund",
        "3261": " refuse",
        "3262": "eyes",
        "3263": " provided",
        "3264": " collected",
        "3265": "ification",
        "3266": " speech",
        "3267": " hasten",
        "3268": " violent",
        "3269": " selfish",
        "3270": " circumstance",
        "3271": " distributing",
        "3272": " prepared",
        "3273": " struck",
        "3274": " surprise",
        "3275": " fallen",
        "3276": " remembrance",
        "3277": "friends",
        "3278": " warmth",
        "3279": " hiding",
        "3280": " judge",
        "3281": " burst",
        "3282": " dawn",
        "3283": " elev",
        "3284": " improve",
        "3285": " improved",
        "3286": " frequ",
        "3287": " toils",
        "3288": " fulfil",
        "3289": " situation",
        "3290": " banks",
        "3291": " anxiety",
        "3292": " escape",
        "3293": "ointment",
        "3294": " birth",
        "3295": " accordingly",
        "3296": "possessed",
        "3297": " single",
        "3298": "aterial",
        "3299": " fields",
        "3300": "through",
        "3301": "While",
        "3302": "interest",
        "3303": " nurse",
        "3304": " shadow",
        "3305": " difficulty",
        "3306": " terrific",
        "3307": " apartment",
        "3308": " papers",
        "3309": " character",
        "3310": "nificent",
        "3311": " maj",
        "3312": " lifeless",
        "3313": "rippa",
        "3314": " explanation",
        "3315": " peculiar",
        "3316": " er",
        "3317": "?\u2019",
        "3318": "AR",
        "3319": "At",
        "3320": "After",
        "3321": "IS",
        "3322": "If",
        "3323": "NT",
        "3324": "OU",
        "3325": "On",
        "3326": "One",
        "3327": "RO",
        "3328": "SE",
        "3329": "Such",
        "3330": "Several",
        "3331": "UT",
        "3332": "Your",
        "3333": "ax",
        "3334": "affect",
        "3335": "bly",
        "3336": "best",
        "3337": "bod",
        "3338": "bout",
        "3339": "cing",
        "3340": "cot",
        "3341": "certain",
        "3342": "clock",
        "3343": "dark",
        "3344": "eed",
        "3345": "even",
        "3346": "electronic",
        "3347": "foll",
        "3348": "ften",
        "3349": "gu",
        "3350": "gin",
        "3351": "gment",
        "3352": "has",
        "3353": "him",
        "3354": "hal",
        "3355": "house",
        "3356": "ia",
        "3357": "iant",
        "3358": "ls",
        "3359": "may",
        "3360": "mate",
        "3361": "must",
        "3362": "ock",
        "3363": "obs",
        "3364": "psed",
        "3365": "rink",
        "3366": "sat",
        "3367": "time",
        "3368": "ude",
        "3369": "warm",
        "3370": "yond",
        "3371": "zing",
        "3372": " ty",
        "3373": " tempt",
        "3374": " tell",
        "3375": " tax",
        "3376": "hend",
        "3377": "ining",
        "3378": "inction",
        "3379": "rehen",
        "3380": "rene",
        "3381": "rehend",
        "3382": " material",
        "3383": "erate",
        "3384": "erted",
        "3385": "atus",
        "3386": "atures",
        "3387": "ening",
        "3388": "ones",
        "3389": " bore",
        "3390": " bare",
        "3391": " boy",
        "3392": " both",
        "3393": " fing",
        "3394": " fil",
        "3395": " harm",
        "3396": " hung",
        "3397": " hanging",
        "3398": "ism",
        "3399": " cultiv",
        "3400": "ester",
        "3401": "esides",
        "3402": " den",
        "3403": "oritz",
        "3404": "oratory",
        "3405": " post",
        "3406": " pract",
        "3407": " portion",
        "3408": " incl",
        "3409": " inex",
        "3410": "llect",
        "3411": " nearer",
        "3412": "oms",
        "3413": "oming",
        "3414": " lam",
        "3415": " loud",
        "3416": " large",
        "3417": " ela",
        "3418": " beyond",
        "3419": "stud",
        "3420": " held",
        "3421": " receive",
        "3422": "entered",
        "3423": "search",
        "3424": " whis",
        "3425": " meantime",
        "3426": "owd",
        "3427": "iring",
        "3428": " gay",
        "3429": " usu",
        "3430": " def",
        "3431": " deed",
        "3432": " deck",
        "3433": " deformity",
        "3434": "hers",
        "3435": " week",
        "3436": " concl",
        "3437": " consequ",
        "3438": " console",
        "3439": " straw",
        "3440": "ift",
        "3441": "ify",
        "3442": "child",
        "3443": "chief",
        "3444": "chool",
        "3445": " features",
        "3446": " subl",
        "3447": " exceed",
        "3448": " exerc",
        "3449": " vent",
        "3450": " showed",
        "3451": " ship",
        "3452": "ulous",
        "3453": "alled",
        "3454": " soft",
        "3455": "eaven",
        "3456": "earth",
        "3457": "emb",
        "3458": "racted",
        "3459": " An",
        "3460": " safe",
        "3461": "ume",
        "3462": "umult",
        "3463": "antity",
        "3464": " uncle",
        "3465": " prove",
        "3466": " procured",
        "3467": "uses",
        "3468": "ively",
        "3469": " Moritz",
        "3470": " Such",
        "3471": " comfort",
        "3472": "orther",
        "3473": " amuse",
        "3474": "asting",
        "3475": " appar",
        "3476": " appears",
        "3477": "osing",
        "3478": "osite",
        "3479": " desolate",
        "3480": " ago",
        "3481": " agitated",
        "3482": " neither",
        "3483": " Every",
        "3484": " env",
        "3485": " encoun",
        "3486": "necess",
        "3487": "ighed",
        "3488": " performed",
        "3489": " perpet",
        "3490": "often",
        "3491": "fulness",
        "3492": " Per",
        "3493": "returned",
        "3494": "such",
        "3495": "suff",
        "3496": "\u2014.",
        "3497": "being",
        "3498": " thank",
        "3499": " quantity",
        "3500": " content",
        "3501": " accused",
        "3502": " overcame",
        "3503": "erving",
        "3504": " advers",
        "3505": "pless",
        "3506": "placed",
        "3507": " result",
        "3508": "ference",
        "3509": "ression",
        "3510": " Le",
        "3511": " Let",
        "3512": " London",
        "3513": "iously",
        "3514": " failed",
        "3515": " countenances",
        "3516": " prec",
        "3517": " presently",
        "3518": "iction",
        "3519": "ivid",
        "3520": " gratitude",
        "3521": " road",
        "3522": " raised",
        "3523": " impat",
        "3524": " Italy",
        "3525": "ignant",
        "3526": " seeing",
        "3527": " princip",
        "3528": " ears",
        "3529": " using",
        "3530": "spir",
        "3531": " partly",
        "3532": "rences",
        "3533": " instru",
        "3534": " commenced",
        "3535": " fix",
        "3536": " loose",
        "3537": " looks",
        "3538": "upon",
        "3539": " lover",
        "3540": " located",
        "3541": " guest",
        "3542": " confined",
        "3543": " strang",
        "3544": " senses",
        "3545": " emotions",
        "3546": " continue",
        "3547": "avour",
        "3548": "itional",
        "3549": "bles",
        "3550": " despond",
        "3551": " cheeks",
        "3552": " criminal",
        "3553": " glory",
        "3554": " accept",
        "3555": " winds",
        "3556": " news",
        "3557": " wondrous",
        "3558": " endeavouring",
        "3559": " copies",
        "3560": "ributed",
        "3561": " interrupt",
        "3562": " resolution",
        "3563": " create",
        "3564": " younger",
        "3565": " lead",
        "3566": " second",
        "3567": "oubled",
        "3568": " intro",
        "3569": " added",
        "3570": " sincerely",
        "3571": " lively",
        "3572": " Agrippa",
        "3573": " terrible",
        "3574": " required",
        "3575": " enemies",
        "3576": " refuge",
        "3577": "knowledge",
        "3578": " sorrowful",
        "3579": " wander",
        "3580": " collect",
        "3581": " rank",
        "3582": "peci",
        "3583": " summit",
        "3584": " minutes",
        "3585": " virtues",
        "3586": " persuade",
        "3587": " persuaded",
        "3588": " servant",
        "3589": " obtained",
        "3590": " triumph",
        "3591": " madness",
        "3592": " convinced",
        "3593": " sentence",
        "3594": " attempted",
        "3595": " benevolence",
        "3596": " daily",
        "3597": " eBooks",
        "3598": " experience",
        "3599": " beside",
        "3600": " freed",
        "3601": " effects",
        "3602": " hellish",
        "3603": " exertion",
        "3604": " fulfilled",
        "3605": " busy",
        "3606": " descended",
        "3607": " speedily",
        "3608": " strongly",
        "3609": " proportion",
        "3610": " precipices",
        "3611": " possession",
        "3612": " fortune",
        "3613": " astonishing",
        "3614": " temper",
        "3615": " waited",
        "3616": " mentioned",
        "3617": " foot",
        "3618": " including",
        "3619": " grave",
        "3620": " THE",
        "3621": " volunt",
        "3622": " accompanied",
        "3623": " disturbed",
        "3624": " instruments",
        "3625": "discovered",
        "3626": "Alas",
        "3627": "occup",
        "3628": "standing",
        "3629": "velop",
        "3630": " walking",
        "3631": " wishes",
        "3632": " harsh",
        "3633": " cease",
        "3634": " shudder",
        "3635": " perfectly",
        "3636": " benefit",
        "3637": " exhibited",
        "3638": "determ",
        "3639": " intense",
        "3640": " effort",
        "3641": " govern",
        "3642": " angel",
        "3643": " connected",
        "3644": "quisite",
        "3645": " Who",
        "3646": " Blanc",
        "3647": " Rhine",
        "3648": " education",
        "3649": " woe",
        "3650": " slept",
        "3651": " simple",
        "3652": "eaufort",
        "3653": " materials",
        "3654": " elapsed",
        "3655": " sublime",
        "3656": " encounter",
        "3657": " adversary",
        "3658": " 5",
        "3659": " es",
        "3660": " est",
        "3661": ",\u2019",
        "3662": "ED",
        "3663": "ES",
        "3664": "For",
        "3665": "From",
        "3666": "IN",
        "3667": "Nothing",
        "3668": "Se",
        "3669": "That",
        "3670": "Why",
        "3671": "bo",
        "3672": "cond",
        "3673": "cks",
        "3674": "cause",
        "3675": "did",
        "3676": "dam",
        "3677": "dif",
        "3678": "del",
        "3679": "eers",
        "3680": "eeth",
        "3681": "fat",
        "3682": "fast",
        "3683": "free",
        "3684": "felt",
        "3685": "gener",
        "3686": "hr",
        "3687": "hard",
        "3688": "horr",
        "3689": "human",
        "3690": "ius",
        "3691": "iently",
        "3692": "jure",
        "3693": "journey",
        "3694": "lim",
        "3695": "lain",
        "3696": "lict",
        "3697": "liness",
        "3698": "men",
        "3699": "mar",
        "3700": "mad",
        "3701": "mind",
        "3702": "mence",
        "3703": "mits",
        "3704": "mical",
        "3705": "opp",
        "3706": "ode",
        "3707": "pain",
        "3708": "rit",
        "3709": "sm",
        "3710": "sil",
        "3711": "sol",
        "3712": "sla",
        "3713": "sens",
        "3714": "sleep",
        "3715": "sacri",
        "3716": "tic",
        "3717": "trem",
        "3718": "ux",
        "3719": "various",
        "3720": "wild",
        "3721": "wretched",
        "3722": "zen",
        "3723": "\u00ea",
        "3724": " tou",
        "3725": " tumult",
        "3726": " teeth",
        "3727": "heaven",
        "3728": " aut",
        "3729": " aug",
        "3730": " wet",
        "3731": " wid",
        "3732": " mi",
        "3733": " mir",
        "3734": " mil",
        "3735": " miles",
        "3736": " ow",
        "3737": " sl",
        "3738": " sim",
        "3739": " sir",
        "3740": " sink",
        "3741": "edu",
        "3742": "eral",
        "3743": "erries",
        "3744": "atch",
        "3745": "enius",
        "3746": " bu",
        "3747": " ble",
        "3748": " base",
        "3749": " borne",
        "3750": " berries",
        "3751": " fit",
        "3752": " ferv",
        "3753": " fainted",
        "3754": " fury",
        "3755": " faces",
        "3756": " hated",
        "3757": " hired",
        "3758": " cred",
        "3759": " cra",
        "3760": " cust",
        "3761": " cru",
        "3762": " case",
        "3763": " das",
        "3764": " dim",
        "3765": " dri",
        "3766": " date",
        "3767": " dry",
        "3768": " dress",
        "3769": "aning",
        "3770": "asy",
        "3771": "ashes",
        "3772": " pa",
        "3773": " pal",
        "3774": " pri",
        "3775": " port",
        "3776": " pale",
        "3777": " thin",
        "3778": " incon",
        "3779": " induced",
        "3780": " myster",
        "3781": "omen",
        "3782": " lin",
        "3783": " lot",
        "3784": " lest",
        "3785": " lau",
        "3786": " lux",
        "3787": " either",
        "3788": "icate",
        "3789": "ically",
        "3790": "icating",
        "3791": " haunt",
        "3792": " beat",
        "3793": " bear",
        "3794": " behind",
        "3795": "lete",
        "3796": "stasy",
        "3797": " rever",
        "3798": " reach",
        "3799": " reached",
        "3800": "vere",
        "3801": "enty",
        "3802": "oting",
        "3803": "otent",
        "3804": " yield",
        "3805": " meas",
        "3806": " merely",
        "3807": "ldom",
        "3808": "urmount",
        "3809": "ghorn",
        "3810": "image",
        "3811": "iments",
        "3812": "irium",
        "3813": "rob",
        "3814": "rie",
        "3815": " notice",
        "3816": " weight",
        "3817": " wealth",
        "3818": " weeks",
        "3819": " weighed",
        "3820": "adually",
        "3821": "ters",
        "3822": "lius",
        "3823": " stand",
        "3824": " stature",
        "3825": " started",
        "3826": " fem",
        "3827": " That",
        "3828": "ourhood",
        "3829": " vice",
        "3830": "ulation",
        "3831": " search",
        "3832": " serene",
        "3833": " seldom",
        "3834": "alls",
        "3835": "alling",
        "3836": " solic",
        "3837": "estions",
        "3838": "arded",
        "3839": "resently",
        "3840": "qual",
        "3841": "emed",
        "3842": "emember",
        "3843": "raced",
        "3844": " aloud",
        "3845": " altered",
        "3846": " spend",
        "3847": " saved",
        "3848": " worked",
        "3849": "dep",
        "3850": "depart",
        "3851": " united",
        "3852": " unknown",
        "3853": " Heaven",
        "3854": " proved",
        "3855": " proof",
        "3856": " prolong",
        "3857": " produce",
        "3858": " Soon",
        "3859": " comb",
        "3860": " amidst",
        "3861": " chair",
        "3862": " chamber",
        "3863": "osp",
        "3864": "osen",
        "3865": "osition",
        "3866": " disp",
        "3867": " agon",
        "3868": "ptember",
        "3869": " arm",
        "3870": " arise",
        "3871": " Bel",
        "3872": " Beaufort",
        "3873": " enchant",
        "3874": " rising",
        "3875": " dogs",
        "3876": "igantic",
        "3877": " perish",
        "3878": " perceive",
        "3879": " From",
        "3880": " removed",
        "3881": "iece",
        "3882": " PRO",
        "3883": "udden",
        "3884": "ksome",
        "3885": "suing",
        "3886": " Could",
        "3887": " Corne",
        "3888": " lives",
        "3889": "aunt",
        "3890": " anything",
        "3891": "oded",
        "3892": " question",
        "3893": " qualities",
        "3894": " blessed",
        "3895": " blasted",
        "3896": " friendship",
        "3897": "soon",
        "3898": " accident",
        "3899": " otherwise",
        "3900": " Your",
        "3901": " YOU",
        "3902": "angs",
        "3903": " happened",
        "3904": " knows",
        "3905": " grat",
        "3906": " grand",
        "3907": " race",
        "3908": " impressed",
        "3909": " impossible",
        "3910": " replace",
        "3911": " rested",
        "3912": " pronoun",
        "3913": "ancing",
        "3914": " recess",
        "3915": "exc",
        "3916": " depend",
        "3917": " command",
        "3918": " guide",
        "3919": " format",
        "3920": " confessed",
        "3921": " confirmed",
        "3922": " pleased",
        "3923": "manner",
        "3924": " affections",
        "3925": "appear",
        "3926": "withstanding",
        "3927": " cheek",
        "3928": " crowd",
        "3929": " arrival",
        "3930": " suppose",
        "3931": " supposed",
        "3932": " endeavours",
        "3933": " incidents",
        "3934": " hardship",
        "3935": " affectionate",
        "3936": " transp",
        "3937": " cursed",
        "3938": " utmost",
        "3939": " interval",
        "3940": " condition",
        "3941": "izon",
        "3942": " crept",
        "3943": " laboratory",
        "3944": " bounds",
        "3945": " intim",
        "3946": " entering",
        "3947": "ibility",
        "3948": " careless",
        "3949": " landed",
        "3950": " advant",
        "3951": " direction",
        "3952": " request",
        "3953": " require",
        "3954": " expressive",
        "3955": " tremendous",
        "3956": " rude",
        "3957": " leag",
        "3958": " answered",
        "3959": " played",
        "3960": " board",
        "3961": " hastened",
        "3962": " lessons",
        "3963": " streets",
        "3964": " violently",
        "3965": " discoveries",
        "3966": " summer",
        "3967": " favourable",
        "3968": " minute",
        "3969": " animal",
        "3970": " abhorrence",
        "3971": " employment",
        "3972": " determination",
        "3973": " agreed",
        "3974": " conviction",
        "3975": " described",
        "3976": " satisfy",
        "3977": "prev",
        "3978": "ugust",
        "3979": " mistaken",
        "3980": " swear",
        "3981": " general",
        "3982": "thoughts",
        "3983": " absent",
        "3984": " doubtless",
        "3985": " entreated",
        "3986": " writing",
        "3987": " written",
        "3988": " dangerous",
        "3989": "destroy",
        "3990": " avoid",
        "3991": " besides",
        "3992": "stantly",
        "3993": " prevent",
        "3994": " malice",
        "3995": " malignity",
        "3996": " delay",
        "3997": " communicated",
        "3998": " professor",
        "3999": " merchant",
        "4000": " fortunate",
        "4001": " travelled",
        "4002": " concealed",
        "4003": "creatures",
        "4004": "promise",
        "4005": " temp",
        "4006": " accompany",
        "4007": " instrument",
        "4008": "justice",
        "4009": "undred",
        "4010": " medium",
        "4011": " finished",
        "4012": " pretty",
        "4013": " suspic",
        "4014": " succeeded",
        "4015": " immediate",
        "4016": " immediately",
        "4017": " join",
        "4018": " joined",
        "4019": " beginning",
        "4020": "reflect",
        "4021": "sembl",
        "4022": " welcome",
        "4023": " alteration",
        "4024": " Jur",
        "4025": " music",
        "4026": " frost",
        "4027": " hurried",
        "4028": " peasants",
        "4029": " sustain",
        "4030": "ortunity",
        "4031": " neighbourhood",
        "4032": " arranging",
        "4033": " contemplated",
        "4034": "pleasure",
        "4035": " closed",
        "4036": " application",
        "4037": " dissipate",
        "4038": " preceding",
        "4039": " wickedness",
        "4040": " multitude",
        "4041": " exhausted",
        "4042": " disgust",
        "4043": " arguments",
        "4044": " survive",
        "4045": " elevated",
        "4046": " majestic",
        "4047": "half",
        "4048": "orthern",
        "4049": " Leghorn",
        "4050": " especi",
        "4051": "uddenly",
        "4052": " Cornelius",
        "4053": "\n ",
        "4054": " 6",
        "4055": " 7",
        "4056": " 9",
        "4057": " ver",
        "4058": " rom",
        "4059": "!\u2019",
        "4060": "),",
        "4061": ",_",
        "4062": "By",
        "4063": "EM",
        "4064": "Every",
        "4065": "Farewell",
        "4066": "Geneva",
        "4067": "LI",
        "4068": "OR",
        "4069": "St",
        "4070": "Section",
        "4071": "Soon",
        "4072": "TH",
        "4073": "William",
        "4074": "action",
        "4075": "bid",
        "4076": "bene",
        "4077": "benevol",
        "4078": "coll",
        "4079": "cold",
        "4080": "cstasy",
        "4081": "dom",
        "4082": "dream",
        "4083": "erest",
        "4084": "fice",
        "4085": "first",
        "4086": "favour",
        "4087": "gan",
        "4088": "gent",
        "4089": "good",
        "4090": "hop",
        "4091": "list",
        "4092": "love",
        "4093": "line",
        "4094": "little",
        "4095": "look",
        "4096": "lasting",
        "4097": "mat",
        "4098": "mag",
        "4099": "master",
        "4100": "nelt",
        "4101": "ob",
        "4102": "oc",
        "4103": "pow",
        "4104": "pend",
        "4105": "post",
        "4106": "pret",
        "4107": "passed",
        "4108": "ric",
        "4109": "sum",
        "4110": "sper",
        "4111": "sometimes",
        "4112": "saw",
        "4113": "science",
        "4114": "sweet",
        "4115": "tri",
        "4116": "tra",
        "4117": "ties",
        "4118": "wind",
        "4119": "wond",
        "4120": "xfor",
        "4121": "ys",
        "4122": "za",
        "4123": "zy",
        "4124": " ting",
        "4125": " treat",
        "4126": " ties",
        "4127": " tree",
        "4128": " taught",
        "4129": "ince",
        "4130": "inqu",
        "4131": "inate",
        "4132": " wra",
        "4133": " wide",
        "4134": " warmed",
        "4135": " mot",
        "4136": " mid",
        "4137": " main",
        "4138": " making",
        "4139": " mortal",
        "4140": " swell",
        "4141": " source",
        "4142": " school",
        "4143": "edition",
        "4144": "edding",
        "4145": "erter",
        "4146": "ouble",
        "4147": "oned",
        "4148": " bra",
        "4149": " book",
        "4150": " fill",
        "4151": " four",
        "4152": " fac",
        "4153": " fine",
        "4154": " flo",
        "4155": " Is",
        "4156": " hut",
        "4157": " hundred",
        "4158": "isure",
        "4159": "issed",
        "4160": " offic",
        "4161": " cat",
        "4162": " cut",
        "4163": " cel",
        "4164": " col",
        "4165": " cost",
        "4166": " coward",
        "4167": "ese",
        "4168": "esp",
        "4169": " dam",
        "4170": " darted",
        "4171": " dunge",
        "4172": "orable",
        "4173": " pist",
        "4174": " pains",
        "4175": "arse",
        "4176": "arling",
        "4177": "ompl",
        "4178": " late",
        "4179": " lakes",
        "4180": " el",
        "4181": " eat",
        "4182": " elo",
        "4183": " ecstasy",
        "4184": " beach",
        "4185": " below",
        "4186": "stran",
        "4187": " hes",
        "4188": " hearing",
        "4189": " reward",
        "4190": " receiving",
        "4191": "see",
        "4192": "ots",
        "4193": "othes",
        "4194": " whither",
        "4195": " meth",
        "4196": "urred",
        "4197": "urbed",
        "4198": "imag",
        "4199": "vert",
        "4200": "iries",
        "4201": "irons",
        "4202": "ality",
        "4203": "already",
        "4204": " gn",
        "4205": " gest",
        "4206": " grew",
        "4207": " gates",
        "4208": " gives",
        "4209": " genius",
        "4210": "road",
        "4211": " ug",
        "4212": " used",
        "4213": " force",
        "4214": "rill",
        "4215": " deb",
        "4216": " defect",
        "4217": " notwithstanding",
        "4218": "ays",
        "4219": "add",
        "4220": "adv",
        "4221": "adise",
        "4222": "thus",
        "4223": "thousand",
        "4224": "abled",
        "4225": "pping",
        "4226": " anger",
        "4227": "amoun",
        "4228": "liance",
        "4229": " constru",
        "4230": " conception",
        "4231": " star",
        "4232": " states",
        "4233": "chan",
        "4234": " Thus",
        "4235": " exile",
        "4236": " excl",
        "4237": " exquisite",
        "4238": "ilt",
        "4239": " show",
        "4240": " shape",
        "4241": " shattered",
        "4242": "ulations",
        "4243": " seas",
        "4244": " severe",
        "4245": "allel",
        "4246": "estial",
        "4247": "ardon",
        "4248": "que",
        "4249": "quence",
        "4250": "indeed",
        "4251": "eaut",
        "4252": " alarm",
        "4253": " alarmed",
        "4254": "acle",
        "4255": "access",
        "4256": " spect",
        "4257": " spark",
        "4258": " spared",
        "4259": " Ah",
        "4260": " save",
        "4261": " worth",
        "4262": " worthy",
        "4263": "dev",
        "4264": "deep",
        "4265": "umn",
        "4266": "ump",
        "4267": "umerable",
        "4268": "ustri",
        "4269": " unless",
        "4270": " uneas",
        "4271": " unlike",
        "4272": " university",
        "4273": "ols",
        "4274": "olution",
        "4275": "using",
        "4276": "ffin",
        "4277": " Man",
        "4278": " Scot",
        "4279": " kne",
        "4280": " knelt",
        "4281": " kissed",
        "4282": " chim",
        "4283": " chance",
        "4284": " chosen",
        "4285": "astic",
        "4286": " applied",
        "4287": " apprehen",
        "4288": " appalling",
        "4289": " desolation",
        "4290": " desires",
        "4291": " Walton",
        "4292": " Werter",
        "4293": " disaster",
        "4294": "ptain",
        "4295": " imb",
        "4296": " imper",
        "4297": " encour",
        "4298": " enabled",
        "4299": " rad",
        "4300": " rash",
        "4301": " roused",
        "4302": " doomed",
        "4303": "law",
        "4304": " permit",
        "4305": " permitted",
        "4306": " perceiving",
        "4307": " Gree",
        "4308": " France",
        "4309": " French",
        "4310": "cible",
        "4311": "irer",
        "4312": "uded",
        "4313": "return",
        "4314": " compos",
        "4315": " comprehend",
        "4316": "behold",
        "4317": "behind",
        "4318": " aband",
        "4319": "forth",
        "4320": " quiet",
        "4321": " questions",
        "4322": " accum",
        "4323": " accompl",
        "4324": "places",
        "4325": " reserved",
        "4326": " plans",
        "4327": " conscience",
        "4328": " consented",
        "4329": " conscious",
        "4330": " attent",
        "4331": " attach",
        "4332": " attached",
        "4333": " attended",
        "4334": " attract",
        "4335": " Our",
        "4336": " Oxfor",
        "4337": "They",
        "4338": "ressive",
        "4339": " creating",
        "4340": " distinguish",
        "4341": " prejud",
        "4342": " poison",
        "4343": " grass",
        "4344": " raise",
        "4345": " everlasting",
        "4346": " impulse",
        "4347": " clos",
        "4348": " destined",
        "4349": " restless",
        "4350": " pride",
        "4351": "apable",
        "4352": "anche",
        "4353": "teen",
        "4354": " recom",
        "4355": "expl",
        "4356": "exting",
        "4357": "shine",
        "4358": " parts",
        "4359": " common",
        "4360": " cottages",
        "4361": " humanity",
        "4362": " formerly",
        "4363": " confirm",
        "4364": " NO",
        "4365": " Nature",
        "4366": " sensit",
        "4367": " continual",
        "4368": "many",
        "4369": "appeared",
        "4370": "duction",
        "4371": " chemist",
        "4372": " chemical",
        "4373": " visible",
        "4374": " extent",
        "4375": " extinguished",
        "4376": " extinguish",
        "4377": "comed",
        "4378": " train",
        "4379": " trust",
        "4380": " troubled",
        "4381": " glorious",
        "4382": " horrid",
        "4383": " horrors",
        "4384": " lighted",
        "4385": " windows",
        "4386": " mode",
        "4387": " destroyer",
        "4388": " joys",
        "4389": " torn",
        "4390": " detest",
        "4391": " detested",
        "4392": " company",
        "4393": " south",
        "4394": " incident",
        "4395": " turning",
        "4396": " powerful",
        "4397": " regions",
        "4398": " regular",
        "4399": " deeper",
        "4400": " delighted",
        "4401": " occupation",
        "4402": "misery",
        "4403": " opin",
        "4404": "cribe",
        "4405": "cribed",
        "4406": " peaceful",
        "4407": " infin",
        "4408": " infant",
        "4409": " leisure",
        "4410": " assumed",
        "4411": "ailed",
        "4412": "licted",
        "4413": " placid",
        "4414": " fiendish",
        "4415": " intended",
        "4416": " address",
        "4417": " sympathised",
        "4418": " intellect",
        "4419": " protected",
        "4420": "yourself",
        "4421": " indignation",
        "4422": "contro",
        "4423": " finding",
        "4424": "words",
        "4425": " tremble",
        "4426": " trembling",
        "4427": " sights",
        "4428": "willing",
        "4429": " truly",
        "4430": " decided",
        "4431": " deadly",
        "4432": " profound",
        "4433": " remainder",
        "4434": " inhabited",
        "4435": " fortitude",
        "4436": " oppressed",
        "4437": " opposite",
        "4438": " engage",
        "4439": " rang",
        "4440": " snowy",
        "4441": " hastily",
        "4442": " viewed",
        "4443": "consid",
        "4444": " 20",
        "4445": " irres",
        "4446": " rivers",
        "4447": " magnificent",
        "4448": " horizon",
        "4449": " dangers",
        "4450": " Alps",
        "4451": " distribute",
        "4452": " distribution",
        "4453": " prepare",
        "4454": " tranquil",
        "4455": " broke",
        "4456": " certainty",
        "4457": " animated",
        "4458": " complet",
        "4459": " complex",
        "4460": " tortures",
        "4461": " subjects",
        "4462": "mnip",
        "4463": " servants",
        "4464": " barri",
        "4465": " barbar",
        "4466": " dearer",
        "4467": " supported",
        "4468": " consideration",
        "4469": "gratitude",
        "4470": "position",
        "4471": "distinguished",
        "4472": " sickness",
        "4473": "ashion",
        "4474": " meeting",
        "4475": " generous",
        "4476": " shores",
        "4477": " disappointment",
        "4478": " absence",
        "4479": "brought",
        "4480": "ogn",
        "4481": " element",
        "4482": " equal",
        "4483": " secrets",
        "4484": "ENT",
        "4485": "destruction",
        "4486": " talked",
        "4487": " inquired",
        "4488": " exertions",
        "4489": " deserts",
        "4490": " immense",
        "4491": " Before",
        "4492": " occurred",
        "4493": " situated",
        "4494": " coffin",
        "4495": " threatened",
        "4496": " delayed",
        "4497": " anxious",
        "4498": " execution",
        "4499": " regarded",
        "4500": " professors",
        "4501": " escaped",
        "4502": "luence",
        "4503": " tenderly",
        "4504": " birds",
        "4505": " habit",
        "4506": " habitation",
        "4507": " helpless",
        "4508": " declined",
        "4509": " examined",
        "4510": "support",
        "4511": " consumm",
        "4512": " guiltless",
        "4513": " traveller",
        "4514": " singular",
        "4515": " explained",
        "4516": " Chamoun",
        "4517": " disturb",
        "4518": " embraced",
        "4519": " listening",
        "4520": " obtaining",
        "4521": "parallel",
        "4522": " mutual",
        "4523": " drops",
        "4524": " conveyed",
        "4525": "therefore",
        "4526": " motionless",
        "4527": " signs",
        "4528": " innumerable",
        "4529": " welcomed",
        "4530": " mournful",
        "4531": " green",
        "4532": " steep",
        "4533": "changel",
        "4534": " vanished",
        "4535": "ulses",
        "4536": " overwhelmed",
        "4537": " flowers",
        "4538": " breakfast",
        "4539": "fiend",
        "4540": "soul",
        "4541": " wreck",
        "4542": " series",
        "4543": " forest",
        "4544": " penetrate",
        "4545": " renewed",
        "4546": " deliverer",
        "4547": " soothed",
        "4548": " dispositions",
        "4549": " neglected",
        "4550": " contrast",
        "4551": "fellow",
        "4552": "continually",
        "4553": " struggled",
        "4554": "pursu",
        "4555": " twenty",
        "4556": "athered",
        "4557": " higher",
        "4558": " physical",
        "4559": " nervous",
        "4560": " lecture",
        "4561": " aspect",
        "4562": " conjectured",
        "4563": " property",
        "4564": " Shall",
        "4565": " liberty",
        "4566": " facts",
        "4567": " glacier",
        "4568": " mockery",
        "4569": " improvement",
        "4570": " frequently",
        "4571": " peculiarly",
        "4572": "affection",
        "4573": "satisf",
        "4574": " fingers",
        "4575": " filthy",
        "4576": " harmless",
        "4577": " lament",
        "4578": " usual",
        "4579": " exercise",
        "4580": " apparition",
        "4581": " environs",
        "4582": " interrupted",
        "4583": "veloped",
        "4584": "determined",
        "4585": " este",
        "4586": "September",
        "4587": "fatig",
        "4588": "horror",
        "4589": "sacrifice",
        "4590": " milk",
        "4591": " bleak",
        "4592": " credit",
        "4593": " driven",
        "4594": " laugh",
        "4595": " haunted",
        "4596": "urmountable",
        "4597": " female",
        "4598": " Jura",
        "4599": " celestial",
        "4600": " method",
        "4601": " Oxford",
        "4602": " Chamounix",
        "4603": "paralleled",
        "4604": " [",
        "4605": " \ufffd",
        "4606": " gh",
        "4607": "AT",
        "4608": "An",
        "4609": "Are",
        "4610": "About",
        "4611": "August",
        "4612": "BER",
        "4613": "CH",
        "4614": "Come",
        "4615": "Dear",
        "4616": "During",
        "4617": "ECT",
        "4618": "Great",
        "4619": "Good",
        "4620": "IL",
        "4621": "JECT",
        "4622": "Letter",
        "4623": "NY",
        "4624": "ON",
        "4625": "There",
        "4626": "_.",
        "4627": "ais",
        "4628": "aud",
        "4629": "azed",
        "4630": "bre",
        "4631": "bour",
        "4632": "bitter",
        "4633": "beaut",
        "4634": "co",
        "4635": "cal",
        "4636": "care",
        "4637": "covered",
        "4638": "case",
        "4639": "cousin",
        "4640": "circumst",
        "4641": "din",
        "4642": "dain",
        "4643": "dated",
        "4644": "dious",
        "4645": "doubt",
        "4646": "ean",
        "4647": "ele",
        "4648": "effect",
        "4649": "erer",
        "4650": "fin",
        "4651": "fam",
        "4652": "filled",
        "4653": "fact",
        "4654": "field",
        "4655": "face",
        "4656": "give",
        "4657": "grief",
        "4658": "hand",
        "4659": "high",
        "4660": "hung",
        "4661": "hope",
        "4662": "hallowed",
        "4663": "iac",
        "4664": "iers",
        "4665": "ilig",
        "4666": "loo",
        "4667": "lum",
        "4668": "lost",
        "4669": "lerable",
        "4670": "langu",
        "4671": "length",
        "4672": "liter",
        "4673": "mb",
        "4674": "mal",
        "4675": "near",
        "4676": "nature",
        "4677": "ox",
        "4678": "oices",
        "4679": "phe",
        "4680": "pen",
        "4681": "ple",
        "4682": "pal",
        "4683": "pered",
        "4684": "peace",
        "4685": "passion",
        "4686": "ration",
        "4687": "rist",
        "4688": "run",
        "4689": "rather",
        "4690": "sy",
        "4691": "sent",
        "4692": "sure",
        "4693": "sight",
        "4694": "side",
        "4695": "sister",
        "4696": "ts",
        "4697": "tears",
        "4698": "uct",
        "4699": "vis",
        "4700": "vation",
        "4701": "vice",
        "4702": "voice",
        "4703": "wa",
        "4704": "wish",
        "4705": "woman",
        "4706": "ylum",
        "4707": " tre",
        "4708": " ted",
        "4709": " tour",
        "4710": " try",
        "4711": " tread",
        "4712": " treas",
        "4713": " taste",
        "4714": "hest",
        "4715": "heard",
        "4716": " ach",
        "4717": " action",
        "4718": " aval",
        "4719": " auth",
        "4720": "inc",
        "4721": "inst",
        "4722": "inated",
        "4723": "innoc",
        "4724": "inhab",
        "4725": "instantly",
        "4726": "reland",
        "4727": "reason",
        "4728": "revenge",
        "4729": " waf",
        "4730": " women",
        "4731": " walls",
        "4732": " mor",
        "4733": " ming",
        "4734": " mould",
        "4735": " mour",
        "4736": " mach",
        "4737": " mass",
        "4738": " morrow",
        "4739": " matter",
        "4740": " theory",
        "4741": " omnip",
        "4742": " odious",
        "4743": "nding",
        "4744": " sal",
        "4745": " song",
        "4746": " snat",
        "4747": " sacri",
        "4748": " squal",
        "4749": "erg",
        "4750": "eration",
        "4751": "athed",
        "4752": "ators",
        "4753": "outh",
        "4754": "enem",
        "4755": "enjoy",
        "4756": "enseless",
        "4757": " bal",
        "4758": " bid",
        "4759": " bade",
        "4760": " bread",
        "4761": " born",
        "4762": " fan",
        "4763": " fif",
        "4764": " fra",
        "4765": " fun",
        "4766": " fast",
        "4767": " fills",
        "4768": " fashion",
        "4769": " Ind",
        "4770": " ho",
        "4771": "isen",
        "4772": "ises",
        "4773": "itar",
        "4774": "itself",
        "4775": "itory",
        "4776": " cher",
        "4777": " cross",
        "4778": "esh",
        "4779": " tore",
        "4780": " dust",
        "4781": " dressed",
        "4782": " dwell",
        "4783": " doub",
        "4784": " dying",
        "4785": " darling",
        "4786": "ashed",
        "4787": "asions",
        "4788": "asburgh",
        "4789": " pil",
        "4790": " pure",
        "4791": " pra",
        "4792": " pun",
        "4793": " page",
        "4794": " pause",
        "4795": " poured",
        "4796": " phr",
        "4797": "arable",
        "4798": " thro",
        "4799": " informed",
        "4800": " inanim",
        "4801": " induce",
        "4802": " inaccess",
        "4803": "lled",
        "4804": "llig",
        "4805": " nav",
        "4806": " number",
        "4807": " northern",
        "4808": "ominy",
        "4809": " line",
        "4810": " lies",
        "4811": " lof",
        "4812": " lull",
        "4813": " license",
        "4814": " eight",
        "4815": "ication",
        "4816": "icious",
        "4817": "iculate",
        "4818": "utions",
        "4819": " hailed",
        "4820": " beast",
        "4821": "still",
        "4822": "stem",
        "4823": " height",
        "4824": " rent",
        "4825": " relig",
        "4826": " relief",
        "4827": " rejo",
        "4828": " research",
        "4829": "entiful",
        "4830": "entirely",
        "4831": "set",
        "4832": "seen",
        "4833": "sect",
        "4834": "sever",
        "4835": "several",
        "4836": "seek",
        "4837": "otence",
        "4838": "otten",
        "4839": " ye",
        "4840": " yester",
        "4841": " mechan",
        "4842": "urable",
        "4843": "uries",
        "4844": "urope",
        "4845": "cture",
        "4846": "along",
        "4847": "alty",
        "4848": "almost",
        "4849": "al\u00ea",
        "4850": " giving",
        "4851": " gigantic",
        "4852": " online",
        "4853": "etite",
        "4854": "room",
        "4855": " unt",
        "4856": " forbid",
        "4857": " aside",
        "4858": " assembl",
        "4859": " asylum",
        "4860": " deceived",
        "4861": " demon",
        "4862": " delic",
        "4863": " notes",
        "4864": "aining",
        "4865": " webs",
        "4866": "adm",
        "4867": "adame",
        "4868": "ths",
        "4869": "than",
        "4870": "ational",
        "4871": " ann",
        "4872": " ant",
        "4873": "among",
        "4874": "ambition",
        "4875": "liver",
        "4876": " constant",
        "4877": " converse",
        "4878": " conjure",
        "4879": " sting",
        "4880": " stir",
        "4881": " stay",
        "4882": " store",
        "4883": " start",
        "4884": " stup",
        "4885": " stones",
        "4886": "ille",
        "4887": "iform",
        "4888": "changed",
        "4889": "charge",
        "4890": " Then",
        "4891": " Two",
        "4892": "ources",
        "4893": " exult",
        "4894": " exchanged",
        "4895": "ilar",
        "4896": "ilosop",
        "4897": " vow",
        "4898": " vac",
        "4899": " vines",
        "4900": " voices",
        "4901": " ate",
        "4902": " share",
        "4903": " shade",
        "4904": " shock",
        "4905": " seat",
        "4906": "allen",
        "4907": " soothing",
        "4908": "esty",
        "4909": " herb",
        "4910": "reshed",
        "4911": "resolved",
        "4912": "quiet",
        "4913": "ateful",
        "4914": "inding",
        "4915": "eaks",
        "4916": "employ",
        "4917": "ending",
        "4918": "race",
        "4919": "istence",
        "4920": "ouses",
        "4921": "ously",
        "4922": "acy",
        "4923": "acked",
        "4924": " spran",
        "4925": " sport",
        "4926": " spite",
        "4927": " spread",
        "4928": " Am",
        "4929": " Amer",
        "4930": " ANY",
        "4931": "els",
        "4932": " sav",
        "4933": " sailed",
        "4934": " worm",
        "4935": " worse",
        "4936": "umption",
        "4937": "ustic",
        "4938": " order",
        "4939": "antly",
        "4940": " uncom",
        "4941": " unacquainted",
        "4942": " unjust",
        "4943": " unparalleled",
        "4944": " unhallowed",
        "4945": " uniform",
        "4946": " Have",
        "4947": "oles",
        "4948": "olunt",
        "4949": "olute",
        "4950": " project",
        "4951": "uss",
        "4952": "usions",
        "4953": " May",
        "4954": " Madame",
        "4955": " Se",
        "4956": " Sav",
        "4957": " Sal\u00ea",
        "4958": "agony",
        "4959": "opy",
        "4960": " ambition",
        "4961": " chill",
        "4962": " charm",
        "4963": "astened",
        "4964": " descent",
        "4965": " WAR",
        "4966": " disdain",
        "4967": " ages",
        "4968": "pture",
        "4969": "mented",
        "4970": " Edin",
        "4971": " enra",
        "4972": " encomp",
        "4973": " ensuing",
        "4974": " run",
        "4975": " rout",
        "4976": " rustic",
        "4977": " noon",
        "4978": "having",
        "4979": " theirs",
        "4980": "lared",
        "4981": "lake",
        "4982": " journ",
        "4983": "bert",
        "4984": " mischief",
        "4985": " Gener",
        "4986": " GUT",
        "4987": " remind",
        "4988": " remove",
        "4989": " Poor",
        "4990": " Presently",
        "4991": "retch",
        "4992": "retired",
        "4993": " compliance",
        "4994": " someone",
        "4995": " somewhat",
        "4996": " entic",
        "4997": "rying",
        "4998": "\u2014\u201c",
        "4999": "\u2014\u201d",
        "5000": "bey",
        "5001": "beings",
        "5002": "beheld",
        "5003": "become",
        "5004": "believe",
        "5005": "became",
        "5006": " abode",
        "5007": " endued",
        "5008": " Here",
        "5009": " obliter",
        "5010": " retire",
        "5011": " blow",
        "5012": " blast",
        "5013": " miserably",
        "5014": " contempt",
        "5015": " contented",
        "5016": " accent",
        "5017": " accents",
        "5018": " owner",
        "5019": "remorse",
        "5020": "rememb",
        "5021": " scream",
        "5022": " scener",
        "5023": "anguish",
        "5024": " resided",
        "5025": " resource",
        "5026": " thence",
        "5027": "conject",
        "5028": " attentions",
        "5029": " Or",
        "5030": " Often",
        "5031": "whom",
        "5032": "while",
        "5033": " happier",
        "5034": " refreshed",
        "5035": "cket",
        "5036": " distress",
        "5037": " distinguished",
        "5038": " distorted",
        "5039": " LI",
        "5040": " Letter",
        "5041": " countries",
        "5042": " pole",
        "5043": " poets",
        "5044": " pocket",
        "5045": " preserve",
        "5046": "ival",
        "5047": " grant",
        "5048": " gradually",
        "5049": "ottom",
        "5050": " impr",
        "5051": " nights",
        "5052": " disclaim",
        "5053": " repe",
        "5054": " reply",
        "5055": " monst",
        "5056": "ittance",
        "5057": " cling",
        "5058": " clasp",
        "5059": " clung",
        "5060": " clothes",
        "5061": "igned",
        "5062": " Did",
        "5063": " Desp",
        "5064": " earli",
        "5065": "lease",
        "5066": "airs",
        "5067": " instig",
        "5068": " depressed",
        "5069": " bring",
        "5070": " 11",
        "5071": " 12",
        "5072": " 18",
        "5073": " 19",
        "5074": "aution",
        "5075": " guard",
        "5076": " guided",
        "5077": " guitar",
        "5078": " confidence",
        "5079": " confused",
        "5080": " sunshine",
        "5081": " Nor",
        "5082": " Now",
        "5083": " Nay",
        "5084": "aving",
        "5085": " childish",
        "5086": " childhood",
        "5087": " throw",
        "5088": " watched",
        "5089": " check",
        "5090": " visions",
        "5091": " visits",
        "5092": " appearances",
        "5093": " extinction",
        "5094": "restrained",
        "5095": " crush",
        "5096": " glim",
        "5097": " glance",
        "5098": " smiled",
        "5099": " lightning",
        "5100": "prot",
        "5101": " seems",
        "5102": " destroying",
        "5103": " pursuits",
        "5104": " gazing",
        "5105": " wonders",
        "5106": " believes",
        "5107": "ceptible",
        "5108": " flowed",
        "5109": " flesh",
        "5110": " torrent",
        "5111": " incred",
        "5112": " incapable",
        "5113": " Information",
        "5114": " curs",
        "5115": "ribution",
        "5116": " images",
        "5117": " imagine",
        "5118": " relation",
        "5119": " relations",
        "5120": " Remember",
        "5121": " resolving",
        "5122": "avenza",
        "5123": " illum",
        "5124": " reading",
        "5125": " wrote",
        "5126": "happy",
        "5127": "orrows",
        "5128": " promont",
        "5129": " subs",
        "5130": "cription",
        "5131": " leg",
        "5132": " leaning",
        "5133": " assure",
        "5134": " observe",
        "5135": "young",
        "5136": " places",
        "5137": " boundary",
        "5138": " calc",
        "5139": " calmed",
        "5140": " intend",
        "5141": " additional",
        "5142": " strangely",
        "5143": " copying",
        "5144": " sympathies",
        "5145": " sympathise",
        "5146": "philosop",
        "5147": " married",
        "5148": " Arve",
        "5149": " protection",
        "5150": " Again",
        "5151": " walks",
        "5152": " goodness",
        "5153": "rossed",
        "5154": " individ",
        "5155": "contempl",
        "5156": "ounce",
        "5157": " offer",
        "5158": " towns",
        "5159": " requires",
        "5160": " suffering",
        "5161": " actions",
        "5162": "repent",
        "5163": " setting",
        "5164": " decay",
        "5165": " decide",
        "5166": " remaining",
        "5167": " brothers",
        "5168": " dreaded",
        "5169": " paths",
        "5170": " languages",
        "5171": " fortnight",
        "5172": " evils",
        "5173": "acels",
        "5174": "kindness",
        "5175": " moderate",
        "5176": " opportunity",
        "5177": " colle",
        "5178": " collection",
        "5179": " irrep",
        "5180": " irksome",
        "5181": "iveness",
        "5182": " renders",
        "5183": " summits",
        "5184": " admire",
        "5185": " distributed",
        "5186": " prepar",
        "5187": " preparing",
        "5188": " difference",
        "5189": " interested",
        "5190": " interesting",
        "5191": " corrupt",
        "5192": " parched",
        "5193": " animation",
        "5194": " animals",
        "5195": " structure",
        "5196": " virtuous",
        "5197": " seize",
        "5198": " travel",
        "5199": "ellow",
        "5200": "prov",
        "5201": " service",
        "5202": " barred",
        "5203": " unhappiness",
        "5204": "express",
        "5205": "expressed",
        "5206": " philosophers",
        "5207": "grimage",
        "5208": " insurmountable",
        "5209": " eager",
        "5210": " eagerness",
        "5211": " ignominy",
        "5212": "xture",
        "5213": "zeal",
        "5214": " swift",
        "5215": " sentiments",
        "5216": " sickened",
        "5217": " revive",
        "5218": " revolved",
        "5219": " generally",
        "5220": " necessity",
        "5221": " judges",
        "5222": " clouded",
        "5223": " conducted",
        "5224": " understanding",
        "5225": " extremely",
        "5226": "brother",
        "5227": "attempt",
        "5228": "attended",
        "5229": " burden",
        "5230": " cares",
        "5231": " captain",
        "5232": " equally",
        "5233": " vainly",
        "5234": " entreaties",
        "5235": " Once",
        "5236": " kept",
        "5237": "ENBER",
        "5238": " talk",
        "5239": " avail",
        "5240": "recoll",
        "5241": " castles",
        "5242": " demanded",
        "5243": "ample",
        "5244": " voyages",
        "5245": " Begone",
        "5246": " respite",
        "5247": " attending",
        "5248": " previous",
        "5249": " sadness",
        "5250": " banished",
        "5251": " branch",
        "5252": " threats",
        "5253": " narrow",
        "5254": " narration",
        "5255": " narrative",
        "5256": " weeping",
        "5257": " unfold",
        "5258": " Mrs",
        "5259": " Paracels",
        "5260": " recollect",
        "5261": " solemnity",
        "5262": " tenderness",
        "5263": " holder",
        "5264": " leaving",
        "5265": " habits",
        "5266": " feverish",
        "5267": " examine",
        "5268": "supposed",
        "5269": " grasped",
        "5270": "despond",
        "5271": " astonishment",
        "5272": "cheerful",
        "5273": "greatest",
        "5274": "promised",
        "5275": " wait",
        "5276": " included",
        "5277": "letter",
        "5278": " assuredly",
        "5279": " volume",
        "5280": " Christ",
        "5281": " transitory",
        "5282": "discover",
        "5283": " ignorance",
        "5284": "Who",
        "5285": "afford",
        "5286": "however",
        "5287": " drawing",
        "5288": " paying",
        "5289": " nursed",
        "5290": " suspense",
        "5291": " probable",
        "5292": " probably",
        "5293": " blessing",
        "5294": " difficult",
        "5295": " veins",
        "5296": "persu",
        "5297": "person",
        "5298": " breath",
        "5299": " breathed",
        "5300": " lower",
        "5301": " stole",
        "5302": " shuddered",
        "5303": " agreeable",
        "5304": " tormented",
        "5305": "ITY",
        "5306": "RANT",
        "5307": "crimes",
        "5308": " peasant",
        "5309": " inspire",
        "5310": " belonged",
        "5311": " belonging",
        "5312": " heroes",
        "5313": " vanish",
        "5314": "ulsive",
        "5315": "endeavoured",
        "5316": "south",
        "5317": " origin",
        "5318": " domestic",
        "5319": " heavy",
        "5320": " groan",
        "5321": " groans",
        "5322": " ascended",
        "5323": " delivered",
        "5324": " soothe",
        "5325": "against",
        "5326": " chiefly",
        "5327": " displaying",
        "5328": " disposition",
        "5329": " rambles",
        "5330": " contrary",
        "5331": " plainly",
        "5332": " earnestly",
        "5333": " particularly",
        "5334": " struggle",
        "5335": "***",
        "5336": "labours",
        "5337": " masters",
        "5338": " befitting",
        "5339": " reverence",
        "5340": " variety",
        "5341": " islands",
        "5342": " blooming",
        "5343": " loathing",
        "5344": " loathsome",
        "5345": "approach",
        "5346": "approached",
        "5347": " selfishness",
        "5348": " dawned",
        "5349": " err",
        "5350": "bestowed",
        "5351": "body",
        "5352": "followed",
        "5353": " tempted",
        "5354": " whispered",
        "5355": " conclusion",
        "5356": " consequences",
        "5357": " amusement",
        "5358": "necessary",
        "5359": "spirits",
        "5360": " strangers",
        "5361": " volunteers",
        "5362": "boat",
        "5363": "delirium",
        "5364": "hardly",
        "5365": "slave",
        "5366": "wildered",
        "5367": "wretchedness",
        "5368": " touched",
        "5369": " mixture",
        "5370": " simpl",
        "5371": " custom",
        "5372": " cruel",
        "5373": " dashing",
        "5374": " paper",
        "5375": " palp",
        "5376": "departure",
        "5377": " PROJECT",
        "5378": " pronounced",
        "5379": "appearance",
        "5380": " hardships",
        "5381": " transported",
        "5382": " advantage",
        "5383": " requirements",
        "5384": " suspicion",
        "5385": " especially",
        "5386": " verd",
        "5387": " romantic",
        "5388": "benevolent",
        "5389": "dreams",
        "5390": "pendicular",
        "5391": " treatment",
        "5392": " cowardice",
        "5393": " dungeon",
        "5394": " eloquence",
        "5395": " hesitated",
        "5396": "imagination",
        "5397": " exclam",
        "5398": " imbued",
        "5399": " composure",
        "5400": " attachment",
        "5401": " chemistry",
        "5402": " infinite",
        "5403": " completion",
        "5404": " barrier",
        "5405": " consummation",
        "5406": " \u2022",
        "5407": "elev",
        "5408": "iacal",
        "5409": " tedious",
        "5410": " avalanche",
        "5411": " authors",
        "5412": "innocence",
        "5413": " wafted",
        "5414": " moral",
        "5415": " mourning",
        "5416": " squalid",
        "5417": "enemy",
        "5418": " pilgrimage",
        "5419": " phrase",
        "5420": " throat",
        "5421": " inanimate",
        "5422": " inaccessible",
        "5423": " lofty",
        "5424": " website",
        "5425": "employed",
        "5426": " sprang",
        "5427": " Americ",
        "5428": " uncommon",
        "5429": " Saville",
        "5430": " Sal\u00eave",
        "5431": " WARRANT",
        "5432": " Edinburgh",
        "5433": " encompassed",
        "5434": " journal",
        "5435": " GUTENBER",
        "5436": " scenery",
        "5437": " promontory",
        "5438": " individual",
        "5439": " swiftness",
        "5440": " Paracelsus",
        "5441": " GUTENBERG",
        "5442": " -",
        "5443": " ic",
        "5444": " \u2014",
        "5445": " zeal",
        "5446": "!)",
        "5447": "AB",
        "5448": "AG",
        "5449": "AL",
        "5450": "AM",
        "5451": "Ag",
        "5452": "All",
        "5453": "Besides",
        "5454": "CE",
        "5455": "CI",
        "5456": "Con",
        "5457": "Ex",
        "5458": "Eng",
        "5459": "GRE",
        "5460": "Henry",
        "5461": "Have",
        "5462": "Having",
        "5463": "IB",
        "5464": "Is",
        "5465": "IES",
        "5466": "LA",
        "5467": "May",
        "5468": "Mont",
        "5469": "MIT",
        "5470": "Now",
        "5471": "Our",
        "5472": "Par",
        "5473": "Poor",
        "5474": "ST",
        "5475": "Some",
        "5476": "Safie",
        "5477": "Sorrows",
        "5478": "TR",
        "5479": "Up",
        "5480": "VE",
        "5481": "Walton",
        "5482": "away",
        "5483": "aired",
        "5484": "bing",
        "5485": "bro",
        "5486": "bbed",
        "5487": "ca",
        "5488": "claim",
        "5489": "couth",
        "5490": "don",
        "5491": "dle",
        "5492": "dra",
        "5493": "died",
        "5494": "dread",
        "5495": "dared",
        "5496": "drew",
        "5497": "d\u00e6mon",
        "5498": "dog",
        "5499": "eb",
        "5500": "eer",
        "5501": "equ",
        "5502": "ease",
        "5503": "either",
        "5504": "fess",
        "5505": "fear",
        "5506": "fied",
        "5507": "fold",
        "5508": "firm",
        "5509": "gl",
        "5510": "gn",
        "5511": "gen",
        "5512": "gar",
        "5513": "gence",
        "5514": "ground",
        "5515": "gave",
        "5516": "ginal",
        "5517": "gazed",
        "5518": "ham",
        "5519": "hip",
        "5520": "hastened",
        "5521": "iation",
        "5522": "iour",
        "5523": "iate",
        "5524": "ike",
        "5525": "iel",
        "5526": "ihil",
        "5527": "iency",
        "5528": "knew",
        "5529": "ler",
        "5530": "lut",
        "5531": "lter",
        "5532": "lose",
        "5533": "looks",
        "5534": "lamed",
        "5535": "mo",
        "5536": "mom",
        "5537": "mid",
        "5538": "morning",
        "5539": "moon",
        "5540": "mency",
        "5541": "money",
        "5542": "mortal",
        "5543": "mosp",
        "5544": "nation",
        "5545": "nel",
        "5546": "nus",
        "5547": "ners",
        "5548": "nance",
        "5549": "oken",
        "5550": "oided",
        "5551": "ointed",
        "5552": "obey",
        "5553": "po",
        "5554": "pit",
        "5555": "por",
        "5556": "pan",
        "5557": "pri",
        "5558": "port",
        "5559": "pict",
        "5560": "pass",
        "5561": "pires",
        "5562": "rable",
        "5563": "rust",
        "5564": "rough",
        "5565": "rict",
        "5566": "rged",
        "5567": "rasburgh",
        "5568": "son",
        "5569": "sur",
        "5570": "sust",
        "5571": "sus",
        "5572": "sive",
        "5573": "same",
        "5574": "sought",
        "5575": "shap",
        "5576": "situ",
        "5577": "sink",
        "5578": "said",
        "5579": "suddenly",
        "5580": "since",
        "5581": "tor",
        "5582": "tain",
        "5583": "tled",
        "5584": "tried",
        "5585": "tale",
        "5586": "took",
        "5587": "taught",
        "5588": "ule",
        "5589": "uly",
        "5590": "uge",
        "5591": "uable",
        "5592": "vid",
        "5593": "voy",
        "5594": "view",
        "5595": "virt",
        "5596": "victim",
        "5597": "visit",
        "5598": "voc",
        "5599": "wal",
        "5600": "wand",
        "5601": "want",
        "5602": "wood",
        "5603": "waves",
        "5604": "water",
        "5605": "winds",
        "5606": "watch",
        "5607": "years",
        "5608": "zz",
        "5609": "zes",
        "5610": " tall",
        "5611": " test",
        "5612": " tea",
        "5613": "heus",
        "5614": "hetic",
        "5615": " aim",
        "5616": " alight",
        "5617": " acted",
        "5618": "inv",
        "5619": "iner",
        "5620": "inent",
        "5621": "inently",
        "5622": "injustice",
        "5623": "incible",
        "5624": "rela",
        "5625": "reary",
        "5626": "rease",
        "5627": "renew",
        "5628": "reement",
        "5629": "resem",
        "5630": " win",
        "5631": " won",
        "5632": " war",
        "5633": " wore",
        "5634": " wip",
        "5635": " wants",
        "5636": " wedding",
        "5637": " midst",
        "5638": " motions",
        "5639": " oper",
        "5640": " sor",
        "5641": " swe",
        "5642": " scient",
        "5643": " swelling",
        "5644": " six",
        "5645": " senseless",
        "5646": "edicated",
        "5647": "erce",
        "5648": "erred",
        "5649": "erous",
        "5650": "erfully",
        "5651": "atlock",
        "5652": "oup",
        "5653": "enched",
        "5654": "onations",
        "5655": " bas",
        "5656": " bol",
        "5657": " bought",
        "5658": " bond",
        "5659": " bud",
        "5660": " bitt",
        "5661": " bottom",
        "5662": " fis",
        "5663": " fart",
        "5664": " fish",
        "5665": " fold",
        "5666": " flight",
        "5667": " fired",
        "5668": " fanc",
        "5669": " fren",
        "5670": " fits",
        "5671": " fishing",
        "5672": " faint",
        "5673": " Ireland",
        "5674": " hum",
        "5675": " hors",
        "5676": "isition",
        "5677": "isible",
        "5678": "ission",
        "5679": "itable",
        "5680": "itical",
        "5681": " cent",
        "5682": " cand",
        "5683": " cla",
        "5684": " cup",
        "5685": " circ",
        "5686": " caves",
        "5687": " cool",
        "5688": " crossed",
        "5689": " top",
        "5690": " tow",
        "5691": " toward",
        "5692": " tools",
        "5693": " tomb",
        "5694": " dict",
        "5695": " due",
        "5696": " dignity",
        "5697": " drive",
        "5698": " dedu",
        "5699": " drun",
        "5700": "ories",
        "5701": "ords",
        "5702": "ane",
        "5703": "anity",
        "5704": "ancholy",
        "5705": "aniel",
        "5706": "asing",
        "5707": "asper",
        "5708": " pop",
        "5709": " pie",
        "5710": " pile",
        "5711": " painted",
        "5712": " pail",
        "5713": " pier",
        "5714": " pines",
        "5715": " pulse",
        "5716": " pardon",
        "5717": " pittance",
        "5718": "arol",
        "5719": "arran",
        "5720": "arked",
        "5721": " inform",
        "5722": " incomp",
        "5723": " injustice",
        "5724": " ingratitude",
        "5725": "lly",
        "5726": "llous",
        "5727": " nour",
        "5728": " nove",
        "5729": " niece",
        "5730": "omy",
        "5731": " loss",
        "5732": " lately",
        "5733": " laughter",
        "5734": " lying",
        "5735": " eld",
        "5736": " ease",
        "5737": "icity",
        "5738": "uts",
        "5739": "utor",
        "5740": "utter",
        "5741": "utable",
        "5742": "utting",
        "5743": " bend",
        "5744": " bearing",
        "5745": " belief",
        "5746": " bewildered",
        "5747": "lege",
        "5748": "left",
        "5749": "leave",
        "5750": "stance",
        "5751": "step",
        "5752": "strate",
        "5753": " heath",
        "5754": " rely",
        "5755": " rela",
        "5756": " relied",
        "5757": " reduced",
        "5758": " reception",
        "5759": "vellous",
        "5760": "ental",
        "5761": "entations",
        "5762": "enthusi",
        "5763": "ceit",
        "5764": "othed",
        "5765": " whale",
        "5766": " whirl",
        "5767": " yellow",
        "5768": " wasted",
        "5769": " waste",
        "5770": " mere",
        "5771": " meal",
        "5772": "urate",
        "5773": "urance",
        "5774": "immedi",
        "5775": "verity",
        "5776": "ird",
        "5777": "irous",
        "5778": "irable",
        "5779": "aled",
        "5780": "ales",
        "5781": "alone",
        "5782": "also",
        "5783": "alties",
        "5784": " get",
        "5785": " gall",
        "5786": " god",
        "5787": " gush",
        "5788": " gift",
        "5789": " gathered",
        "5790": "eters",
        "5791": "etry",
        "5792": "etheus",
        "5793": "idently",
        "5794": "rove",
        "5795": "rock",
        "5796": "roach",
        "5797": "rophe",
        "5798": " forci",
        "5799": "riev",
        "5800": " ascent",
        "5801": " dew",
        "5802": " deject",
        "5803": " deformed",
        "5804": " deemed",
        "5805": " deliver",
        "5806": "herself",
        "5807": "hermen",
        "5808": "ades",
        "5809": "ading",
        "5810": "threat",
        "5811": "those",
        "5812": "things",
        "5813": "above",
        "5814": "ables",
        "5815": "terrible",
        "5816": "aming",
        "5817": "aments",
        "5818": " conven",
        "5819": " consec",
        "5820": " concluded",
        "5821": " stif",
        "5822": " stead",
        "5823": " status",
        "5824": " strove",
        "5825": "illa",
        "5826": "ectation",
        "5827": "char",
        "5828": "chamber",
        "5829": " fees",
        "5830": " sure",
        "5831": " sugg",
        "5832": "ourse",
        "5833": " exempt",
        "5834": " exact",
        "5835": " exasper",
        "5836": "ilan",
        "5837": "iling",
        "5838": "iless",
        "5839": "ilities",
        "5840": " vig",
        "5841": " vener",
        "5842": " void",
        "5843": " vivid",
        "5844": " shun",
        "5845": " shine",
        "5846": " shake",
        "5847": " shown",
        "5848": " shared",
        "5849": " shrie",
        "5850": "ulted",
        "5851": " seated",
        "5852": " separ",
        "5853": " selected",
        "5854": " secluded",
        "5855": " severity",
        "5856": " soften",
        "5857": " hers",
        "5858": "resp",
        "5859": "resentations",
        "5860": " issu",
        "5861": "quate",
        "5862": "question",
        "5863": "earest",
        "5864": "earn",
        "5865": "earnest",
        "5866": "ements",
        "5867": "emory",
        "5868": "reating",
        "5869": "rait",
        "5870": "istered",
        "5871": "istible",
        "5872": "isturbed",
        "5873": "acher",
        "5874": "account",
        "5875": "aciated",
        "5876": " spl",
        "5877": " spr",
        "5878": " spare",
        "5879": " space",
        "5880": " spurned",
        "5881": " About",
        "5882": " Adam",
        "5883": " AGRE",
        "5884": "elancholy",
        "5885": " worn",
        "5886": " worst",
        "5887": "dec",
        "5888": "deg",
        "5889": "dead",
        "5890": " yours",
        "5891": "ument",
        "5892": "umerous",
        "5893": " ord",
        "5894": " orph",
        "5895": " unus",
        "5896": " unrem",
        "5897": " unfortun",
        "5898": " unnatural",
        "5899": " unming",
        "5900": " uncertain",
        "5901": " unsatisf",
        "5902": " Hear",
        "5903": " wholly",
        "5904": " produ",
        "5905": " process",
        "5906": " prosper",
        "5907": " Mag",
        "5908": " March",
        "5909": " Milan",
        "5910": " Serv",
        "5911": " Suddenly",
        "5912": "rank",
        "5913": "unged",
        "5914": "unfortunate",
        "5915": "unwilling",
        "5916": "aging",
        "5917": "agreement",
        "5918": "opened",
        "5919": " king",
        "5920": " chang",
        "5921": " chains",
        "5922": " chival",
        "5923": "aston",
        "5924": "astes",
        "5925": "astly",
        "5926": "astrophe",
        "5927": " appetite",
        "5928": " desper",
        "5929": " deserve",
        "5930": " deserted",
        "5931": " deserving",
        "5932": " desirous",
        "5933": " Was",
        "5934": " disk",
        "5935": " discons",
        "5936": " aged",
        "5937": " willingly",
        "5938": " shelter",
        "5939": "ptoms",
        "5940": " image",
        "5941": " imitate",
        "5942": " Besides",
        "5943": " Ev",
        "5944": " Ex",
        "5945": " Europe",
        "5946": " enable",
        "5947": " enlight",
        "5948": " enveloped",
        "5949": " rich",
        "5950": " rul",
        "5951": " rays",
        "5952": " risen",
        "5953": "hair",
        "5954": "next",
        "5955": "\n\n   ",
        "5956": " jew",
        "5957": "igators",
        "5958": " mission",
        "5959": " peril",
        "5960": " perpendicular",
        "5961": " Gre",
        "5962": " Germ",
        "5963": " FOR",
        "5964": "cile",
        "5965": " Plain",
        "5966": "eping",
        "5967": " expand",
        "5968": " exposed",
        "5969": " expedition",
        "5970": "thern",
        "5971": "sub",
        "5972": "super",
        "5973": " compl",
        "5974": " comput",
        "5975": " compens",
        "5976": " composed",
        "5977": " entity",
        "5978": " entire",
        "5979": " entert",
        "5980": "akened",
        "5981": " Cont",
        "5982": " Cursed",
        "5983": " Carol",
        "5984": "rugged",
        "5985": " libr",
        "5986": " livid",
        "5987": "begin",
        "5988": "began",
        "5989": " abroad",
        "5990": " thanked",
        "5991": " endowed",
        "5992": "forget",
        "5993": " ourselves",
        "5994": " intolerable",
        "5995": " obst",
        "5996": " quar",
        "5997": " quitting",
        "5998": " blot",
        "5999": " blows",
        "6000": " bliss",
        "6001": " contained",
        "6002": " contrived",
        "6003": "soever",
        "6004": " overfl",
        "6005": " overhung",
        "6006": " adored",
        "6007": " becoming",
        "6008": " Yes",
        "6009": "ples",
        "6010": "persed",
        "6011": "perform",
        "6012": "perfect",
        "6013": "remained",
        "6014": "remains",
        "6015": "remony",
        "6016": " scorn",
        "6017": " scope",
        "6018": " scattered",
        "6019": "convers",
        "6020": " plunge",
        "6021": " plentiful",
        "6022": " consisted",
        "6023": " attracted",
        "6024": " attributed",
        "6025": "few",
        "6026": "fere",
        "6027": "ferent",
        "6028": " Of",
        "6029": "whose",
        "6030": "losed",
        "6031": "resses",
        "6032": " Ly",
        "6033": " Lavenza",
        "6034": " Learn",
        "6035": " faith",
        "6036": " pointed",
        "6037": " poignant",
        "6038": " presumption",
        "6039": "ivity",
        "6040": "ivative",
        "6041": "ivacity",
        "6042": " foundations",
        "6043": " grin",
        "6044": " group",
        "6045": " roy",
        "6046": " roared",
        "6047": " rocks",
        "6048": " roots",
        "6049": " raft",
        "6050": " rapture",
        "6051": "lessly",
        "6052": " minds",
        "6053": " import",
        "6054": " impress",
        "6055": " impenet",
        "6056": " impression",
        "6057": " impulses",
        "6058": " Its",
        "6059": " Ital",
        "6060": " loveliness",
        "6061": " disclose",
        "6062": " report",
        "6063": " republic",
        "6064": " replete",
        "6065": " clim",
        "6066": " clings",
        "6067": " clue",
        "6068": " class",
        "6069": " DIS",
        "6070": " Daniel",
        "6071": "cles",
        "6072": " rests",
        "6073": "ertion",
        "6074": "apes",
        "6075": " recent",
        "6076": " recovery",
        "6077": " recomp",
        "6078": " recalled",
        "6079": " recurred",
        "6080": " user",
        "6081": " uses",
        "6082": "exec",
        "6083": "existence",
        "6084": "spring",
        "6085": " murmur",
        "6086": "shore",
        "6087": " party",
        "6088": " evidently",
        "6089": " depended",
        "6090": " dearly",
        "6091": " commit",
        "6092": "lands",
        "6093": "lieved",
        "6094": " 10",
        "6095": " 13",
        "6096": "author",
        "6097": " surmount",
        "6098": " guess",
        "6099": "uresque",
        "6100": " confide",
        "6101": " confusion",
        "6102": " conflict",
        "6103": " fearing",
        "6104": " Not",
        "6105": " Night",
        "6106": " Never",
        "6107": " Nothing",
        "6108": "ordingly",
        "6109": " please",
        "6110": " pleasures",
        "6111": " sensibility",
        "6112": " indeli",
        "6113": " emotion",
        "6114": " emaciated",
        "6115": " sooner",
        "6116": "manners",
        "6117": " possibly",
        "6118": "black",
        "6119": "ipated",
        "6120": "ipment",
        "6121": "version",
        "6122": "mean",
        "6123": " affected",
        "6124": "fortunes",
        "6125": "dued",
        "6126": " checked",
        "6127": " cheese",
        "6128": " vision",
        "6129": "comm",
        "6130": "committed",
        "6131": "commence",
        "6132": " outward",
        "6133": " outcast",
        "6134": " crown",
        "6135": " glut",
        "6136": " glitter",
        "6137": " smiling",
        "6138": " seemingly",
        "6139": " pursuing",
        "6140": " gaiety",
        "6141": " joyous",
        "6142": "rers",
        "6143": " trait",
        "6144": " track",
        "6145": " traversed",
        "6146": " flash",
        "6147": " fluct",
        "6148": "assure",
        "6149": " supply",
        "6150": " suppress",
        "6151": "intention",
        "6152": " southern",
        "6153": " increase",
        "6154": " system",
        "6155": " idle",
        "6156": " ident",
        "6157": " current",
        "6158": "ribute",
        "6159": "ributing",
        "6160": " imaginations",
        "6161": " region",
        "6162": " relates",
        "6163": " relinqu",
        "6164": " RE",
        "6165": " Russ",
        "6166": " intercept",
        "6167": " intercourse",
        "6168": " interfere",
        "6169": " degrad",
        "6170": " delights",
        "6171": " delightful",
        "6172": " occupy",
        "6173": " ready",
        "6174": "monster",
        "6175": "months",
        "6176": "happened",
        "6177": " symptoms",
        "6178": "misfortunes",
        "6179": " devouring",
        "6180": " devote",
        "6181": " substance",
        "6182": " subdued",
        "6183": "ficulty",
        "6184": "swallowed",
        "6185": " bestowing",
        "6186": " infancy",
        "6187": " inflict",
        "6188": " inflicted",
        "6189": " inflamed",
        "6190": "\n    \n   ",
        "6191": "youth",
        "6192": " student",
        "6193": " studied",
        "6194": " bounded",
        "6195": " intentions",
        "6196": " betr",
        "6197": "horred",
        "6198": " marvellous",
        "6199": " integr",
        "6200": " charged",
        "6201": " airs",
        "6202": "desire",
        "6203": "desired",
        "6204": "describe",
        "6205": " career",
        "6206": " silver",
        "6207": " landsc",
        "6208": " learning",
        "6209": " heavenly",
        "6210": " advent",
        "6211": " advance",
        "6212": " advancing",
        "6213": "content",
        "6214": "getables",
        "6215": " bodies",
        "6216": " bodily",
        "6217": " offspring",
        "6218": "ciple",
        "6219": "world",
        "6220": "works",
        "6221": " active",
        "6222": " rule",
        "6223": " ruined",
        "6224": "valesc",
        "6225": "interrupt",
        "6226": "intercourse",
        "6227": "repare",
        "6228": " declared",
        "6229": " playing",
        "6230": " refused",
        "6231": " acquire",
        "6232": " acquired",
        "6233": "eye",
        "6234": " affirm",
        "6235": " sorrows",
        "6236": " dreadfully",
        "6237": " languor",
        "6238": " However",
        "6239": " providing",
        "6240": "reasing",
        "6241": " wandering",
        "6242": " oppressive",
        "6243": " Still",
        "6244": " Strasburgh",
        "6245": "compan",
        "6246": "compassion",
        "6247": " persons",
        "6248": " utterance",
        "6249": "people",
        "6250": " snows",
        "6251": " street",
        "6252": " views",
        "6253": " accounts",
        "6254": "consolation",
        "6255": "conscious",
        "6256": " sweetness",
        "6257": " capacity",
        "6258": "asket",
        "6259": " painful",
        "6260": " useful",
        "6261": " admired",
        "6262": " admirable",
        "6263": " watchful",
        "6264": " highly",
        "6265": " corner",
        "6266": " travels",
        "6267": " tortured",
        "6268": "Here",
        "6269": "progress",
        "6270": "ughter",
        "6271": "undert",
        "6272": "understand",
        "6273": " services",
        "6274": " barren",
        "6275": " carry",
        "6276": " cleared",
        "6277": "expected",
        "6278": "expectation",
        "6279": " considerably",
        "6280": " philosopher",
        "6281": "grat",
        "6282": "poses",
        "6283": " wilds",
        "6284": " wildest",
        "6285": " madman",
        "6286": " insat",
        "6287": " insanity",
        "6288": "prejud",
        "6289": "ugnance",
        "6290": " mists",
        "6291": " mistress",
        "6292": " sentiment",
        "6293": " sickening",
        "6294": "ernal",
        "6295": "orns",
        "6296": " limb",
        "6297": " revived",
        "6298": " villagers",
        "6299": " vessels",
        "6300": " disappointed",
        "6301": " judged",
        "6302": " judgment",
        "6303": " absor",
        "6304": " absolute",
        "6305": " cloudless",
        "6306": "mountain",
        "6307": "mountains",
        "6308": "ogy",
        "6309": "attracted",
        "6310": " burnt",
        "6311": " causes",
        "6312": " putting",
        "6313": " elements",
        "6314": " equipment",
        "6315": " meaning",
        "6316": " victims",
        "6317": " edge",
        "6318": " editions",
        "6319": "destiny",
        "6320": " talent",
        "6321": " avoided",
        "6322": "record",
        "6323": " breaking",
        "6324": " inquisit",
        "6325": " inquiries",
        "6326": " inquirer",
        "6327": " supernatural",
        "6328": "accidents",
        "6329": " immutable",
        "6330": " respected",
        "6331": " attendant",
        "6332": " occurrence",
        "6333": " occurrences",
        "6334": "afterwards",
        "6335": " busied",
        "6336": " frightened",
        "6337": " execute",
        "6338": " executed",
        "6339": " complying",
        "6340": " commencement",
        "6341": " profession",
        "6342": "cottagers",
        "6343": "lux",
        "6344": "oints",
        "6345": " merc",
        "6346": " merits",
        "6347": " invisible",
        "6348": "secutor",
        "6349": " decline",
        "6350": " declare",
        "6351": " examining",
        "6352": " according",
        "6353": " consume",
        "6354": " consumed",
        "6355": " undertake",
        "6356": " assisted",
        "6357": " assistance",
        "6358": " afforded",
        "6359": " astonished",
        "6360": "chemist",
        "6361": "creature",
        "6362": "possess",
        "6363": " awa",
        "6364": " awful",
        "6365": " awake",
        "6366": " foe",
        "6367": "animal",
        "6368": "animation",
        "6369": " grace",
        "6370": " THIS",
        "6371": " excessive",
        "6372": " explain",
        "6373": " exploded",
        "6374": "whole",
        "6375": " embark",
        "6376": "affold",
        "6377": "evil",
        "6378": " firmly",
        "6379": " firmness",
        "6380": " hateful",
        "6381": " drop",
        "6382": " drove",
        "6383": " payments",
        "6384": " pretence",
        "6385": " shades",
        "6386": " seasons",
        "6387": " probability",
        "6388": " Swiss",
        "6389": " failing",
        "6390": " failure",
        "6391": " cheerfulness",
        "6392": " devils",
        "6393": " paragraphs",
        "6394": "mighty",
        "6395": "trademark",
        "6396": "regard",
        "6397": " slightest",
        "6398": " breathe",
        "6399": " papa",
        "6400": " stock",
        "6401": " stopped",
        "6402": " streams",
        "6403": " expectation",
        "6404": " details",
        "6405": " characters",
        "6406": " benefact",
        "6407": "Before",
        "6408": "Begone",
        "6409": " slowly",
        "6410": " frozen",
        "6411": " patience",
        "6412": " inspired",
        "6413": " exhibit",
        "6414": "endeavour",
        "6415": "ortunately",
        "6416": " neighbouring",
        "6417": " contemplate",
        "6418": " overwhelming",
        "6419": "crease",
        "6420": "cannot",
        "6421": "fixed",
        "6422": "murder",
        "6423": "infant",
        "6424": " wreak",
        "6425": " original",
        "6426": " serious",
        "6427": " further",
        "6428": " cloak",
        "6429": " penetrated",
        "6430": " heavily",
        "6431": " undisturbed",
        "6432": " valued",
        "6433": " valuable",
        "6434": " applicable",
        "6435": " displayed",
        "6436": " remarkably",
        "6437": " preyed",
        "6438": " preceded",
        "6439": " ravine",
        "6440": " ravings",
        "6441": " recorded",
        "6442": " particulars",
        "6443": " diffused",
        "6444": "continued",
        "6445": " falsehood",
        "6446": "Archive",
        "6447": "bounded",
        "6448": "minute",
        "6449": " slavery",
        "6450": "athemat",
        "6451": " highest",
        "6452": " derive",
        "6453": " derivative",
        "6454": " drawn",
        "6455": " injury",
        "6456": " nerves",
        "6457": " hairs",
        "6458": " befallen",
        "6459": " forgive",
        "6460": "umberland",
        "6461": " bloom",
        "6462": "remaining",
        "6463": "confess",
        "6464": " glaciers",
        "6465": " improvements",
        "6466": " frequent",
        "6467": "interested",
        "6468": "interesting",
        "6469": "bestow",
        "6470": "darkness",
        "6471": "observed",
        "6472": "warmth",
        "6473": " temptation",
        "6474": " cultivation",
        "6475": " cultivated",
        "6476": " deny",
        "6477": " posted",
        "6478": " practical",
        "6479": " inexorable",
        "6480": "study",
        "6481": " defence",
        "6482": "children",
        "6483": "earthly",
        "6484": " perpetual",
        "6485": " Perth",
        "6486": "suffic",
        "6487": " impatient",
        "6488": " impatience",
        "6489": " principal",
        "6490": " principally",
        "6491": " instructions",
        "6492": " fixing",
        "6493": " despondency",
        "6494": " introduced",
        "6495": " wanderings",
        "6496": " collecting",
        "6497": " freedom",
        "6498": " proportionably",
        "6499": "occupied",
        "6500": " shuddering",
        "6501": " efforts",
        "6502": " government",
        "6503": " governments",
        "6504": "difficulty",
        "6505": "freely",
        "6506": "marriage",
        "6507": "painful",
        "6508": "smiles",
        "6509": "sensations",
        "6510": " tumultuous",
        "6511": " author",
        "6512": " autumn",
        "6513": " augmented",
        "6514": " mirac",
        "6515": " owed",
        "6516": " fervour",
        "6517": " cracked",
        "6518": " portrait",
        "6519": " mysterious",
        "6520": " links",
        "6521": " luxury",
        "6522": " reveries",
        "6523": " measure",
        "6524": " standing",
        "6525": " combined",
        "6526": " agonies",
        "6527": " Belrive",
        "6528": " enchanting",
        "6529": " replacement",
        "6530": " recesses",
        "6531": " intimate",
        "6532": " carelessness",
        "6533": " league",
        "6534": " leagues",
        "6535": "destroyed",
        "6536": " tempest",
        "6537": "States",
        "6538": "THE",
        "6539": "collect",
        "6540": "gentle",
        "6541": "listened",
        "6542": "magnificent",
        "6543": "traversed",
        "6544": "wonder",
        "6545": " wrapped",
        "6546": " motives",
        "6547": " midnight",
        "6548": " swelled",
        "6549": " brave",
        "6550": " floor",
        "6551": " official",
        "6552": " catastrophe",
        "6553": " pistol",
        "6554": " eluded",
        "6555": "stranger",
        "6556": " gnashed",
        "6557": " gestures",
        "6558": " ugly",
        "6559": " defective",
        "6560": "advanced",
        "6561": " constructed",
        "6562": " spectre",
        "6563": " sparkled",
        "6564": "devoted",
        "6565": "ustrious",
        "6566": " uneasy",
        "6567": " Scotland",
        "6568": " kneel",
        "6569": " chimer",
        "6570": " apprehension",
        "6571": " radiant",
        "6572": " rashly",
        "6573": " abandoned",
        "6574": " accumulated",
        "6575": " accomplish",
        "6576": " attentively",
        "6577": " closer",
        "6578": " recommence",
        "6579": "extinguished",
        "6580": " NOT",
        "6581": " sensitive",
        "6582": " regularly",
        "6583": " opinion",
        "6584": "controll",
        "6585": " irresistible",
        "6586": " barbarous",
        "6587": "supportable",
        "6588": " steeple",
        "6589": " esteem",
        "6590": " ghastly",
        "6591": "ILITY",
        "6592": "iligence",
        "6593": "looked",
        "6594": "palais",
        "6595": " treacher",
        "6596": " achie",
        "6597": "instrum",
        "6598": "inhabited",
        "6599": " mingled",
        "6600": " omnipotent",
        "6601": " songs",
        "6602": " snatched",
        "6603": " funeral",
        "6604": " doubted",
        "6605": "lligence",
        "6606": " navigators",
        "6607": " religion",
        "6608": " rejoiced",
        "6609": " yesterday",
        "6610": " mechanism",
        "6611": " demoniacal",
        "6612": "admiration",
        "6613": " stirred",
        "6614": " stupendous",
        "6615": " exultation",
        "6616": "ilarity",
        "6617": " savage",
        "6618": " projects",
        "6619": "opyright",
        "6620": "bertus",
        "6621": " General",
        "6622": " obliterated",
        "6623": " monstrous",
        "6624": " earlier",
        "6625": " instigated",
        "6626": " glimmer",
        "6627": "protected",
        "6628": " cursory",
        "6629": "philosophy",
        "6630": "contemplated",
        "6631": " college",
        "6632": " irreparable",
        "6633": " corruption",
        "6634": " Christian",
        "6635": "persuade",
        "6636": " breathless",
        "6637": " exclamation",
        "6638": " America",
        "6639": " icy",
        "6640": "AMAG",
        "6641": "MITED",
        "6642": "broken",
        "6643": "donate",
        "6644": "fessor",
        "6645": "ihilation",
        "6646": "lutarch",
        "6647": "moment",
        "6648": "mosphere",
        "6649": "sustained",
        "6650": "voyage",
        "6651": " sorry",
        "6652": " swept",
        "6653": " scientific",
        "6654": " bonds",
        "6655": " bitterest",
        "6656": " fishermen",
        "6657": " farther",
        "6658": " frenzy",
        "6659": " horses",
        "6660": " pieces",
        "6661": " incomplete",
        "6662": " nourishment",
        "6663": " novelt",
        "6664": "steps",
        "6665": "enthusiastic",
        "6666": "immediate",
        "6667": "etersburgh",
        "6668": " forcibly",
        "6669": " exactly",
        "6670": " venerable",
        "6671": " shunned",
        "6672": " shrieked",
        "6673": " orphan",
        "6674": " unusual",
        "6675": " unfortunately",
        "6676": " unmingled",
        "6677": " Magnus",
        "6678": " changes",
        "6679": " disconsolate",
        "6680": " enlightened",
        "6681": " jewels",
        "6682": " Plainpalais",
        "6683": " entertained",
        "6684": " Caroline",
        "6685": " library",
        "6686": "beginning",
        "6687": "conversation",
        "6688": " impenetrable",
        "6689": "execution",
        "6690": " glittering",
        "6691": " fluctu",
        "6692": " degradation",
        "6693": " integrity",
        "6694": " landscape",
        "6695": "valescence",
        "6696": "athematics",
        "6697": " #",
        "6698": " 8",
        "6699": " uten",
        "6700": " ices",
        "6701": " ***",
        "6702": ",\u2014",
        "6703": ".\u2014",
        "6704": "00",
        "6705": "01",
        "6706": "21",
        "6707": "62",
        "6708": "84",
        "6709": ":\u2014",
        "6710": "Ah",
        "6711": "Ay",
        "6712": "Aut",
        "6713": "ACH",
        "6714": "BO",
        "6715": "CEN",
        "6716": "Day",
        "6717": "Def",
        "6718": "DER",
        "6719": "Dearest",
        "6720": "Devil",
        "6721": "Even",
        "6722": "EIN",
        "6723": "ETHE",
        "6724": "French",
        "6725": "God",
        "6726": "Germ",
        "6727": "Her",
        "6728": "Ingolstadt",
        "6729": "IRE",
        "6730": "ION",
        "6731": "IVE",
        "6732": "July",
        "6733": "KEN",
        "6734": "LE",
        "6735": "LL",
        "6736": "Last",
        "6737": "Mr",
        "6738": "Man",
        "6739": "Morning",
        "6740": "Matlock",
        "6741": "METHE",
        "6742": "Nor",
        "6743": "NKEN",
        "6744": "OK",
        "6745": "Other",
        "6746": "ONT",
        "6747": "OSE",
        "6748": "ODER",
        "6749": "Plain",
        "6750": "Presently",
        "6751": "Pardon",
        "6752": "Plutarch",
        "6753": "Re",
        "6754": "Ru",
        "6755": "Remember",
        "6756": "SS",
        "6757": "So",
        "6758": "Sw",
        "6759": "Sure",
        "6760": "Sometimes",
        "6761": "Six",
        "6762": "Scot",
        "6763": "SCI",
        "6764": "Tears",
        "6765": "US",
        "6766": "Un",
        "6767": "ULL",
        "6768": "Where",
        "6769": "Yes",
        "6770": "aved",
        "6771": "acted",
        "6772": "ban",
        "6773": "bet",
        "6774": "bation",
        "6775": "band",
        "6776": "bear",
        "6777": "bel",
        "6778": "boy",
        "6779": "back",
        "6780": "both",
        "6781": "better",
        "6782": "cur",
        "6783": "cher",
        "6784": "cra",
        "6785": "caves",
        "6786": "copyright",
        "6787": "dri",
        "6788": "die",
        "6789": "dire",
        "6790": "dry",
        "6791": "during",
        "6792": "down",
        "6793": "daughter",
        "6794": "dwelling",
        "6795": "dying",
        "6796": "drink",
        "6797": "een",
        "6798": "eur",
        "6799": "eff",
        "6800": "electr",
        "6801": "eog",
        "6802": "eging",
        "6803": "far",
        "6804": "fil",
        "6805": "fate",
        "6806": "fra",
        "6807": "fun",
        "6808": "food",
        "6809": "flo",
        "6810": "feared",
        "6811": "fail",
        "6812": "fection",
        "6813": "fling",
        "6814": "fancy",
        "6815": "feless",
        "6816": "fishing",
        "6817": "fool",
        "6818": "finding",
        "6819": "go",
        "6820": "gre",
        "6821": "gall",
        "6822": "gra",
        "6823": "glected",
        "6824": "gacity",
        "6825": "gigantic",
        "6826": "gathered",
        "6827": "gotten",
        "6828": "hur",
        "6829": "hour",
        "6830": "home",
        "6831": "hist",
        "6832": "hort",
        "6833": "hours",
        "6834": "harm",
        "6835": "hitherto",
        "6836": "hangs",
        "6837": "houses",
        "6838": "iab",
        "6839": "ili",
        "6840": "iend",
        "6841": "iance",
        "6842": "ipt",
        "6843": "ially",
        "6844": "ivers",
        "6845": "ians",
        "6846": "ibed",
        "6847": "iature",
        "6848": "ienced",
        "6849": "iogn",
        "6850": "jured",
        "6851": "jury",
        "6852": "kney",
        "6853": "late",
        "6854": "lines",
        "6855": "mm",
        "6856": "mor",
        "6857": "mot",
        "6858": "mant",
        "6859": "mus",
        "6860": "mers",
        "6861": "mber",
        "6862": "mod",
        "6863": "mild",
        "6864": "make",
        "6865": "mpath",
        "6866": "mail",
        "6867": "motion",
        "6868": "minds",
        "6869": "mock",
        "6870": "memory",
        "6871": "melancholy",
        "6872": "ny",
        "6873": "nor",
        "6874": "nal",
        "6875": "nter",
        "6876": "none",
        "6877": "nerable",
        "6878": "northern",
        "6879": "oh",
        "6880": "ok",
        "6881": "ois",
        "6882": "oic",
        "6883": "oir",
        "6884": "off",
        "6885": "ober",
        "6886": "oked",
        "6887": "ohere",
        "6888": "ocated",
        "6889": "ped",
        "6890": "pher",
        "6891": "pun",
        "6892": "pine",
        "6893": "prem",
        "6894": "pile",
        "6895": "phy",
        "6896": "paused",
        "6897": "phys",
        "6898": "poned",
        "6899": "rs",
        "6900": "row",
        "6901": "ram",
        "6902": "rant",
        "6903": "rish",
        "6904": "rise",
        "6905": "rase",
        "6906": "rants",
        "6907": "rising",
        "6908": "raded",
        "6909": "rusion",
        "6910": "riting",
        "6911": "roused",
        "6912": "sing",
        "6913": "sence",
        "6914": "sity",
        "6915": "sun",
        "6916": "sha",
        "6917": "sions",
        "6918": "snow",
        "6919": "serv",
        "6920": "sick",
        "6921": "saf",
        "6922": "sank",
        "6923": "school",
        "6924": "soften",
        "6925": "tou",
        "6926": "tot",
        "6927": "tal",
        "6928": "tem",
        "6929": "tran",
        "6930": "tort",
        "6931": "turn",
        "6932": "tru",
        "6933": "tally",
        "6934": "town",
        "6935": "two",
        "6936": "task",
        "6937": "taste",
        "6938": "tastes",
        "6939": "ub",
        "6940": "uel",
        "6941": "ucted",
        "6942": "ucer",
        "6943": "uham",
        "6944": "van",
        "6945": "vion",
        "6946": "vent",
        "6947": "vest",
        "6948": "vious",
        "6949": "viol",
        "6950": "vinced",
        "6951": "viour",
        "6952": "went",
        "6953": "wich",
        "6954": "ware",
        "6955": "wife",
        "6956": "wide",
        "6957": "warr",
        "6958": "welt",
        "6959": "writ",
        "6960": "wedding",
        "6961": "wretch",
        "6962": "writing",
        "6963": "yard",
        "6964": "yield",
        "6965": "\u00f4",
        "6966": " tur",
        "6967": " tim",
        "6968": " tid",
        "6969": " till",
        "6970": " tong",
        "6971": " tone",
        "6972": " tide",
        "6973": " tex",
        "6974": " tapp",
        "6975": " takes",
        "6976": " tones",
        "6977": "hered",
        "6978": "head",
        "6979": " aer",
        "6980": " aud",
        "6981": " awe",
        "6982": " aided",
        "6983": " aught",
        "6984": " alike",
        "6985": " averse",
        "6986": " avert",
        "6987": "incl",
        "6988": "inished",
        "6989": "inement",
        "6990": "includ",
        "6991": "inople",
        "6992": "injure",
        "6993": "increase",
        "6994": "rel",
        "6995": "rend",
        "6996": "requ",
        "6997": "reward",
        "6998": "really",
        "6999": "received",
        "7000": "receive",
        "7001": "rength",
        "7002": "revoc",
        "7003": "relieved",
        "7004": " west",
        "7005": " wert",
        "7006": " wrec",
        "7007": " mat",
        "7008": " mate",
        "7009": " mum",
        "7010": " mort",
        "7011": " mood",
        "7012": " mak",
        "7013": " mile",
        "7014": " maint",
        "7015": " makes",
        "7016": " mule",
        "7017": " mathematics",
        "7018": " oat",
        "7019": " oar",
        "7020": " owe",
        "7021": " oak",
        "7022": " oars",
        "7023": " omitted",
        "7024": " sit",
        "7025": " sand",
        "7026": " sang",
        "7027": " saint",
        "7028": " sources",
        "7029": "eded",
        "7030": "edist",
        "7031": "edily",
        "7032": "editer",
        "7033": "editions",
        "7034": "ederal",
        "7035": "erver",
        "7036": "erations",
        "7037": "ator",
        "7038": "atan",
        "7039": "atives",
        "7040": "ouis",
        "7041": "ourers",
        "7042": "enial",
        "7043": "enignity",
        "7044": "onous",
        "7045": "onies",
        "7046": "onstrate",
        "7047": " bab",
        "7048": " ball",
        "7049": " burn",
        "7050": " bold",
        "7051": " blight",
        "7052": " brief",
        "7053": " burned",
        "7054": " baff",
        "7055": " basket",
        "7056": " benignity",
        "7057": " fain",
        "7058": " fost",
        "7059": " fare",
        "7060": " furn",
        "7061": " fru",
        "7062": " fert",
        "7063": " fitted",
        "7064": " farm",
        "7065": " fring",
        "7066": " farewell",
        "7067": " fuel",
        "7068": " federal",
        "7069": " IN",
        "7070": " IND",
        "7071": " Imm",
        "7072": " Irish",
        "7073": " hy",
        "7074": " hill",
        "7075": " hunt",
        "7076": " hushed",
        "7077": " houses",
        "7078": " huge",
        "7079": " hilarity",
        "7080": "isation",
        "7081": "isive",
        "7082": "isions",
        "7083": "iserable",
        "7084": "iscovered",
        "7085": "ites",
        "7086": "itle",
        "7087": "ital",
        "7088": "iture",
        "7089": "itous",
        "7090": "itered",
        "7091": "itates",
        "7092": " cry",
        "7093": " cord",
        "7094": " craw",
        "7095": " cell",
        "7096": " cries",
        "7097": " today",
        "7098": " totally",
        "7099": " dab",
        "7100": " dil",
        "7101": " dus",
        "7102": " dated",
        "7103": " dull",
        "7104": " dried",
        "7105": " diz",
        "7106": " dash",
        "7107": " doted",
        "7108": " damp",
        "7109": " diver",
        "7110": " drink",
        "7111": " daunt",
        "7112": " double",
        "7113": " dreary",
        "7114": " dedicated",
        "7115": " diligence",
        "7116": " diab",
        "7117": "oration",
        "7118": "orous",
        "7119": "orary",
        "7120": "anse",
        "7121": "anation",
        "7122": "another",
        "7123": "analy",
        "7124": "anvert",
        "7125": "anilla",
        "7126": "asked",
        "7127": "assured",
        "7128": " pen",
        "7129": " pit",
        "7130": " pet",
        "7131": " pol",
        "7132": " pla",
        "7133": " pang",
        "7134": " pull",
        "7135": " pack",
        "7136": " pace",
        "7137": " piny",
        "7138": " pool",
        "7139": " piece",
        "7140": " pangs",
        "7141": " packed",
        "7142": "arb",
        "7143": "arly",
        "7144": "arri",
        "7145": "around",
        "7146": "aries",
        "7147": "arings",
        "7148": "aried",
        "7149": "arned",
        "7150": "arrived",
        "7151": "ariner",
        "7152": " thine",
        "7153": " inher",
        "7154": " incess",
        "7155": " ineffect",
        "7156": " insect",
        "7157": " inexpress",
        "7158": " inequ",
        "7159": " insupportable",
        "7160": "ingered",
        "7161": "ingale",
        "7162": "llen",
        "7163": "lley",
        "7164": " non",
        "7165": " nic",
        "7166": " nay",
        "7167": " nook",
        "7168": " nuts",
        "7169": " numerous",
        "7170": "omo",
        "7171": "omas",
        "7172": "ompose",
        "7173": " lic",
        "7174": " lust",
        "7175": " lone",
        "7176": " lap",
        "7177": " link",
        "7178": " liter",
        "7179": " lines",
        "7180": " lashes",
        "7181": " lingered",
        "7182": " elix",
        "7183": " epo",
        "7184": "icle",
        "7185": "icable",
        "7186": "ician",
        "7187": "icipate",
        "7188": "utation",
        "7189": "utality",
        "7190": " beha",
        "7191": " bears",
        "7192": "lead",
        "7193": "leag",
        "7194": "lebr",
        "7195": "lemency",
        "7196": "learned",
        "7197": "state",
        "7198": "stood",
        "7199": "stone",
        "7200": "stained",
        "7201": "strong",
        "7202": "stairs",
        "7203": "strength",
        "7204": " red",
        "7205": " ren",
        "7206": " rece",
        "7207": " rede",
        "7208": " reject",
        "7209": " recon",
        "7210": " refe",
        "7211": " redist",
        "7212": " reverse",
        "7213": " replaced",
        "7214": " reference",
        "7215": " resembl",
        "7216": " release",
        "7217": " reassure",
        "7218": "veil",
        "7219": "enth",
        "7220": "enter",
        "7221": "sea",
        "7222": "seiz",
        "7223": "seback",
        "7224": "ceiv",
        "7225": "ceforth",
        "7226": "otter",
        "7227": "otonous",
        "7228": " yard",
        "7229": " mead",
        "7230": "owth",
        "7231": "uration",
        "7232": "urch",
        "7233": "urous",
        "7234": "urity",
        "7235": "uriant",
        "7236": "urrences",
        "7237": "uracy",
        "7238": "imately",
        "7239": "ctive",
        "7240": "ctober",
        "7241": "iron",
        "7242": "irited",
        "7243": "irksome",
        "7244": "aling",
        "7245": " gun",
        "7246": " gather",
        "7247": " gold",
        "7248": " gently",
        "7249": " gushed",
        "7250": " grie",
        "7251": " gales",
        "7252": " geog",
        "7253": " garb",
        "7254": " withstand",
        "7255": " withdrew",
        "7256": "etary",
        "7257": "ids",
        "7258": "idge",
        "7259": "idity",
        "7260": "rod",
        "7261": "rofessor",
        "7262": " fors",
        "7263": " forces",
        "7264": "rift",
        "7265": " ashes",
        "7266": " asleep",
        "7267": " ascertain",
        "7268": " ascribed",
        "7269": " deer",
        "7270": " depl",
        "7271": " debar",
        "7272": " deceit",
        "7273": " demean",
        "7274": "ainz",
        "7275": " weary",
        "7276": " welf",
        "7277": " weigh",
        "7278": "ader",
        "7279": "thur",
        "7280": "thirst",
        "7281": "about",
        "7282": "abian",
        "7283": "abode",
        "7284": "abhorred",
        "7285": "absence",
        "7286": " anew",
        "7287": " antic",
        "7288": "tering",
        "7289": "amuse",
        "7290": "ameless",
        "7291": "amois",
        "7292": "liest",
        "7293": "liage",
        "7294": "liating",
        "7295": "lifeless",
        "7296": " conc",
        "7297": " conqu",
        "7298": " conci",
        "7299": " conster",
        "7300": " conversed",
        "7301": " congrat",
        "7302": " sty",
        "7303": " stim",
        "7304": " stri",
        "7305": " station",
        "7306": " stag",
        "7307": " stage",
        "7308": " stone",
        "7309": " strew",
        "7310": " stony",
        "7311": " stayed",
        "7312": "iff",
        "7313": "ifested",
        "7314": "ching",
        "7315": "chained",
        "7316": "changing",
        "7317": " feature",
        "7318": " suprem",
        "7319": " TO",
        "7320": " Take",
        "7321": " Term",
        "7322": " Tell",
        "7323": "andering",
        "7324": "ourished",
        "7325": "ourishing",
        "7326": " excell",
        "7327": " excluded",
        "7328": " example",
        "7329": "ilitated",
        "7330": " vag",
        "7331": " vowed",
        "7332": " vices",
        "7333": " vicious",
        "7334": " vivacity",
        "7335": " atmosphere",
        "7336": " sho",
        "7337": " shr",
        "7338": " shame",
        "7339": " shout",
        "7340": " shaded",
        "7341": " shiver",
        "7342": " shrink",
        "7343": " shrill",
        "7344": " shapes",
        "7345": "ulus",
        "7346": "ulged",
        "7347": "ulating",
        "7348": "ulatory",
        "7349": "ulnerable",
        "7350": " sex",
        "7351": " send",
        "7352": " seven",
        "7353": " sending",
        "7354": "henomen",
        "7355": "allow",
        "7356": " sock",
        "7357": " soaring",
        "7358": " sobbed",
        "7359": "estmor",
        "7360": "residence",
        "7361": " isle",
        "7362": "quer",
        "7363": "quil",
        "7364": "quake",
        "7365": "quite",
        "7366": "quired",
        "7367": "quick",
        "7368": "quitted",
        "7369": "atever",
        "7370": "oose",
        "7371": "indignation",
        "7372": "ounded",
        "7373": "early",
        "7374": "earliest",
        "7375": "theast",
        "7376": "\u201d\u2014",
        "7377": "emn",
        "7378": "endured",
        "7379": "reath",
        "7380": "reator",
        "7381": "rav",
        "7382": "raved",
        "7383": "raction",
        "7384": "rapid",
        "7385": "raphy",
        "7386": "ists",
        "7387": "isten",
        "7388": " altern",
        "7389": " alchemist",
        "7390": "key",
        "7391": "keys",
        "7392": "keeping",
        "7393": "acred",
        "7394": "acks",
        "7395": "accomp",
        "7396": " spurn",
        "7397": " speaks",
        "7398": " spoken",
        "7399": " Are",
        "7400": " Acc",
        "7401": " August",
        "7402": " Austri",
        "7403": " ASCI",
        "7404": " whence",
        "7405": " whenever",
        "7406": " sagacity",
        "7407": "articulate",
        "7408": "decl",
        "7409": "umb",
        "7410": "umes",
        "7411": " orb",
        "7412": " ordered",
        "7413": " organ",
        "7414": "antial",
        "7415": " unful",
        "7416": " unsp",
        "7417": " unwor",
        "7418": " unfeeling",
        "7419": " unperceived",
        "7420": " unexpl",
        "7421": " unwilling",
        "7422": " unrestrained",
        "7423": " uncouth",
        "7424": " unconscious",
        "7425": " unexpected",
        "7426": " unprejud",
        "7427": " unbounded",
        "7428": " unearthly",
        "7429": " uncontroll",
        "7430": " unprotected",
        "7431": "told",
        "7432": "together",
        "7433": " allured",
        "7434": " allusion",
        "7435": " allude",
        "7436": " Had",
        "7437": "olated",
        "7438": "olutions",
        "7439": " profic",
        "7440": " prosec",
        "7441": " proclaim",
        "7442": " progn",
        "7443": "usation",
        "7444": "ushing",
        "7445": " Men",
        "7446": " More",
        "7447": " Most",
        "7448": " Mary",
        "7449": " Many",
        "7450": " Miss",
        "7451": " MODER",
        "7452": " Muham",
        "7453": " Mediter",
        "7454": " Miserable",
        "7455": " Mariner",
        "7456": " Mainz",
        "7457": " So",
        "7458": " Sea",
        "7459": " Sister",
        "7460": " Section",
        "7461": " Save",
        "7462": " Satan",
        "7463": "ranc",
        "7464": "ranean",
        "7465": " coming",
        "7466": " comfor",
        "7467": " comrad",
        "7468": "union",
        "7469": "unci",
        "7470": "unwh",
        "7471": "unlike",
        "7472": "university",
        "7473": "unication",
        "7474": "unhappy",
        "7475": "ager",
        "7476": "agree",
        "7477": "agitation",
        "7478": "open",
        "7479": "oping",
        "7480": "operation",
        "7481": "operations",
        "7482": "ersian",
        "7483": "ounted",
        "7484": "ccess",
        "7485": "ortions",
        "7486": " kill",
        "7487": " ample",
        "7488": " amounted",
        "7489": " chain",
        "7490": " chained",
        "7491": " chink",
        "7492": " chord",
        "7493": " choice",
        "7494": " chilled",
        "7495": " church",
        "7496": " chamois",
        "7497": " choose",
        "7498": " appertain",
        "7499": " apprehend",
        "7500": " desiring",
        "7501": " desolated",
        "7502": " Woll",
        "7503": " Westmor",
        "7504": " dispe",
        "7505": " dislike",
        "7506": " disquis",
        "7507": " disquiet",
        "7508": " disease",
        "7509": " dispersed",
        "7510": " upright",
        "7511": " agitates",
        "7512": " willow",
        "7513": " shepher",
        "7514": " neat",
        "7515": "pty",
        "7516": "ptured",
        "7517": " arter",
        "7518": " arch",
        "7519": " arrest",
        "7520": " arrow",
        "7521": "inex",
        "7522": "ineffect",
        "7523": " imme",
        "7524": " BE",
        "7525": " BRE",
        "7526": " Brit",
        "7527": "arel",
        "7528": " EX",
        "7529": " Ever",
        "7530": " EBO",
        "7531": " enorm",
        "7532": " enjo",
        "7533": " ensure",
        "7534": " energ",
        "7535": " enquired",
        "7536": " rid",
        "7537": " rud",
        "7538": " rough",
        "7539": " rouse",
        "7540": " rowing",
        "7541": " rush",
        "7542": " rational",
        "7543": " rushing",
        "7544": " nois",
        "7545": " dozen",
        "7546": "neglected",
        "7547": "\n\n\n    ",
        "7548": " \u201c_",
        "7549": " pert",
        "7550": " persever",
        "7551": " persecutor",
        "7552": " Good",
        "7553": " Genev",
        "7554": "ondence",
        "7555": "oyalty",
        "7556": " FRA",
        "7557": " Farewell",
        "7558": " Fortunately",
        "7559": " FULL",
        "7560": "cial",
        "7561": "fulfil",
        "7562": " remo",
        "7563": " remot",
        "7564": " remote",
        "7565": " reminds",
        "7566": " remarked",
        "7567": " PG",
        "7568": " PU",
        "7569": " Peace",
        "7570": " Petersburgh",
        "7571": " Persian",
        "7572": "udence",
        "7573": "returning",
        "7574": "retriev",
        "7575": " shoulder",
        "7576": " exper",
        "7577": " expens",
        "7578": " expiration",
        "7579": " expanse",
        "7580": "subs",
        "7581": "succeed",
        "7582": "success",
        "7583": " compared",
        "7584": "blem",
        "7585": "imely",
        "7586": " feels",
        "7587": " Comp",
        "7588": " Cumberland",
        "7589": " CONT",
        "7590": " Como",
        "7591": " Creator",
        "7592": "ruary",
        "7593": "\u2014.\u201d",
        "7594": "otherwise",
        "7595": " anywhere",
        "7596": "becom",
        "7597": "belief",
        "7598": " ability",
        "7599": " thanks",
        "7600": " ended",
        "7601": " endow",
        "7602": " endless",
        "7603": "force",
        "7604": "forgotten",
        "7605": " obed",
        "7606": " obvious",
        "7607": " quite",
        "7608": " quiver",
        "7609": " quality",
        "7610": " quenched",
        "7611": " blunt",
        "7612": " friendless",
        "7613": " contribut",
        "7614": " contact",
        "7615": " contributed",
        "7616": " containing",
        "7617": " accidents",
        "7618": " accursed",
        "7619": " overt",
        "7620": " overthr",
        "7621": " overlook",
        "7622": " overpow",
        "7623": "ervation",
        "7624": " owns",
        "7625": " adj",
        "7626": " adduced",
        "7627": " adversity",
        "7628": "plans",
        "7629": "performed",
        "7630": "perience",
        "7631": "permitted",
        "7632": "perpet",
        "7633": "perienced",
        "7634": "remember",
        "7635": " scents",
        "7636": " scared",
        "7637": " scaffold",
        "7638": " resist",
        "7639": " reside",
        "7640": " resumed",
        "7641": " resources",
        "7642": " resigned",
        "7643": "concl",
        "7644": "concer",
        "7645": "conceive",
        "7646": "constant",
        "7647": "convalescence",
        "7648": "convinced",
        "7649": " plains",
        "7650": " plants",
        "7651": " plunged",
        "7652": "uteness",
        "7653": "utenant",
        "7654": " attain",
        "7655": " attitude",
        "7656": " attacked",
        "7657": " Over",
        "7658": " Ocean",
        "7659": " October",
        "7660": "why",
        "7661": "white",
        "7662": " happen",
        "7663": " happily",
        "7664": "loath",
        "7665": "lobe",
        "7666": " everything",
        "7667": "adequate",
        "7668": " refined",
        "7669": " refrain",
        "7670": "cking",
        "7671": " natures",
        "7672": " distinction",
        "7673": " distrust",
        "7674": " La",
        "7675": " Lost",
        "7676": " Life",
        "7677": " Lives",
        "7678": " Like",
        "7679": " Lucer",
        "7680": " Louis",
        "7681": " Listen",
        "7682": "older",
        "7683": "tenance",
        "7684": "tensive",
        "7685": " fault",
        "7686": " fairer",
        "7687": " precious",
        "7688": " poetry",
        "7689": " presents",
        "7690": " preserved",
        "7691": " preservation",
        "7692": "ictory",
        "7693": " knowing",
        "7694": "arkness",
        "7695": "ivors",
        "7696": " founded",
        "7697": " grate",
        "7698": " grateful",
        "7699": " growth",
        "7700": " rob",
        "7701": " rolled",
        "7702": " roarings",
        "7703": " raven",
        "7704": " ragged",
        "7705": " howl",
        "7706": " imped",
        "7707": " imposs",
        "7708": " impass",
        "7709": " imposed",
        "7710": " impell",
        "7711": " imprec",
        "7712": " impotent",
        "7713": "ltered",
        "7714": " discourse",
        "7715": " disclosed",
        "7716": " repair",
        "7717": " reported",
        "7718": " repulsive",
        "7719": " repaired",
        "7720": " reproach",
        "7721": " representations",
        "7722": "ension",
        "7723": "ensible",
        "7724": " returns",
        "7725": " hopeless",
        "7726": "ignor",
        "7727": " Dear",
        "7728": " Dep",
        "7729": " Doth",
        "7730": " Donations",
        "7731": " DAMAG",
        "7732": " Darkness",
        "7733": "clothed",
        "7734": " hearts",
        "7735": " heartfelt",
        "7736": " resting",
        "7737": " restrained",
        "7738": " restrain",
        "7739": " restrict",
        "7740": " price",
        "7741": " print",
        "7742": " prayed",
        "7743": " printed",
        "7744": " working",
        "7745": "tell",
        "7746": "teeth",
        "7747": " purch",
        "7748": " purport",
        "7749": " purposes",
        "7750": " deaths",
        "7751": " sufferer",
        "7752": " suffocated",
        "7753": " wherever",
        "7754": " wherefore",
        "7755": " recur",
        "7756": " recover",
        "7757": " recogn",
        "7758": "extrem",
        "7759": "spent",
        "7760": " murm",
        "7761": "shut",
        "7762": "short",
        "7763": "shone",
        "7764": "myster",
        "7765": "renched",
[...]
